{
  "version": "1.0",
  "truncation": null,
  "padding": null,
  "added_tokens": [
    {
      "id": 39978,
      "content": "<|endoftext|>",
      "single_word": false,
      "lstrip": false,
      "rstrip": false,
      "normalized": false,
      "special": true
    },
    {
      "id": 39979,
      "content": "<|im_start|>",
      "single_word": false,
      "lstrip": false,
      "rstrip": false,
      "normalized": false,
      "special": true
    },
    {
      "id": 39980,
      "content": "<|im_end|>",
      "single_word": false,
      "lstrip": false,
      "rstrip": false,
      "normalized": false,
      "special": true
    },
    {
      "id": 39981,
      "content": "<|object_ref_start|>",
      "single_word": false,
      "lstrip": false,
      "rstrip": false,
      "normalized": false,
      "special": true
    },
    {
      "id": 39982,
      "content": "<|object_ref_end|>",
      "single_word": false,
      "lstrip": false,
      "rstrip": false,
      "normalized": false,
      "special": true
    },
    {
      "id": 39983,
      "content": "<|box_start|>",
      "single_word": false,
      "lstrip": false,
      "rstrip": false,
      "normalized": false,
      "special": true
    },
    {
      "id": 39984,
      "content": "<|box_end|>",
      "single_word": false,
      "lstrip": false,
      "rstrip": false,
      "normalized": false,
      "special": true
    },
    {
      "id": 39985,
      "content": "<|quad_start|>",
      "single_word": false,
      "lstrip": false,
      "rstrip": false,
      "normalized": false,
      "special": true
    },
    {
      "id": 39986,
      "content": "<|quad_end|>",
      "single_word": false,
      "lstrip": false,
      "rstrip": false,
      "normalized": false,
      "special": true
    },
    {
      "id": 39987,
      "content": "<|vision_start|>",
      "single_word": false,
      "lstrip": false,
      "rstrip": false,
      "normalized": false,
      "special": true
    },
    {
      "id": 39988,
      "content": "<|vision_end|>",
      "single_word": false,
      "lstrip": false,
      "rstrip": false,
      "normalized": false,
      "special": true
    },
    {
      "id": 39989,
      "content": "<|vision_pad|>",
      "single_word": false,
      "lstrip": false,
      "rstrip": false,
      "normalized": false,
      "special": true
    },
    {
      "id": 39990,
      "content": "<|image_pad|>",
      "single_word": false,
      "lstrip": false,
      "rstrip": false,
      "normalized": false,
      "special": true
    },
    {
      "id": 39991,
      "content": "<|video_pad|>",
      "single_word": false,
      "lstrip": false,
      "rstrip": false,
      "normalized": false,
      "special": true
    },
    {
      "id": 39992,
      "content": "<tool_call>",
      "single_word": false,
      "lstrip": false,
      "rstrip": false,
      "normalized": false,
      "special": true
    },
    {
      "id": 39993,
      "content": "</tool_call>",
      "single_word": false,
      "lstrip": false,
      "rstrip": false,
      "normalized": false,
      "special": true
    },
    {
      "id": 39994,
      "content": "<|fim_prefix|>",
      "single_word": false,
      "lstrip": false,
      "rstrip": false,
      "normalized": false,
      "special": true
    },
    {
      "id": 39995,
      "content": "<|fim_middle|>",
      "single_word": false,
      "lstrip": false,
      "rstrip": false,
      "normalized": false,
      "special": true
    },
    {
      "id": 39996,
      "content": "<|fim_suffix|>",
      "single_word": false,
      "lstrip": false,
      "rstrip": false,
      "normalized": false,
      "special": true
    },
    {
      "id": 39997,
      "content": "<|fim_pad|>",
      "single_word": false,
      "lstrip": false,
      "rstrip": false,
      "normalized": false,
      "special": true
    },
    {
      "id": 39998,
      "content": "<|repo_name|>",
      "single_word": false,
      "lstrip": false,
      "rstrip": false,
      "normalized": false,
      "special": true
    },
    {
      "id": 39999,
      "content": "<|file_sep|>",
      "single_word": false,
      "lstrip": false,
      "rstrip": false,
      "normalized": false,
      "special": true
    }
  ],
  "normalizer": null,
  "pre_tokenizer": {
    "type": "ByteLevel",
    "add_prefix_space": false,
    "trim_offsets": true,
    "use_regex": true
  },
  "post_processor": {
    "type": "ByteLevel",
    "add_prefix_space": true,
    "trim_offsets": true,
    "use_regex": true
  },
  "decoder": {
    "type": "ByteLevel",
    "add_prefix_space": true,
    "trim_offsets": true,
    "use_regex": true
  },
  "model": {
    "type": "BPE",
    "dropout": null,
    "unk_token": null,
    "continuing_subword_prefix": null,
    "end_of_word_suffix": null,
    "fuse_unk": false,
    "byte_fallback": true,
    "ignore_merges": false,
    "vocab": {
      "!": 0,
      "!!": 1,
      "!!!": 2,
      "!!!!": 3,
      "!!!ĊĊ": 4,
      "!!.": 5,
      "!!ĊĊ": 6,
      "!\"": 7,
      "!\");Ċ": 8,
      "!\")Ċ": 9,
      "!\",": 10,
      "!\",Ċ": 11,
      "!\";Ċ": 12,
      "!\"Ċ": 13,
      "!\"ĊĊ": 14,
      "!'": 15,
      "!');Ċ": 16,
      "!')Ċ": 17,
      "!',": 18,
      "!',Ċ": 19,
      "!(": 20,
      "!(\"": 21,
      "!(Ċ": 22,
      "!)": 23,
      "!)Ċ": 24,
      "!)ĊĊ": 25,
      "!,": 26,
      "!--": 27,
      "!.": 28,
      "!:": 29,
      "!</": 30,
      "!=": 31,
      "!=\"": 32,
      "!='": 33,
      "![": 34,
      "!\\": 35,
      "!âĢĿ": 36,
      "!âĢĿĊĊ": 37,
      "!Ċ": 38,
      "!ĊĊ": 39,
      "!ĊĊĊ": 40,
      "!ĊĊĊĊ": 41,
      "\"": 42,
      "\"\"": 43,
      "\"\"\"": 44,
      "\"\"\"Ċ": 45,
      "\"\"\"ĊĊ": 46,
      "\"\"\"čĊ": 47,
      "\"\",Ċ": 48,
      "\"\":": 49,
      "\"$": 50,
      "\"%": 51,
      "\"'": 52,
      "\"(": 53,
      "\")": 54,
      "\")(": 55,
      "\"))": 56,
      "\")))": 57,
      "\")));Ċ": 58,
      "\")))Ċ": 59,
      "\")),": 60,
      "\")),Ċ": 61,
      "\")).": 62,
      "\"));": 63,
      "\"));Ċ": 64,
      "\"));ĊĊ": 65,
      "\"));čĊ": 66,
      "\")){Ċ": 67,
      "\"))Ċ": 68,
      "\"))ĊĊ": 69,
      "\"))čĊ": 70,
      "\"),": 71,
      "\"),Ċ": 72,
      "\"),čĊ": 73,
      "\")->": 74,
      "\").": 75,
      "\").Ċ": 76,
      "\"):": 77,
      "\"):Ċ": 78,
      "\");": 79,
      "\");Ċ": 80,
      "\");ĊĊ": 81,
      "\");ĊĊĊ": 82,
      "\");čĊ": 83,
      "\");čĊčĊ": 84,
      "\")[": 85,
      "\")]": 86,
      "\")]Ċ": 87,
      "\")]čĊ": 88,
      "\"){Ċ": 89,
      "\")Ċ": 90,
      "\")ĊĊ": 91,
      "\")ĊĊĊ": 92,
      "\")čĊ": 93,
      "\")čĊčĊ": 94,
      "\"+": 95,
      "\"+Ċ": 96,
      "\",": 97,
      "\",\"": 98,
      "\",$": 99,
      "\",&": 100,
      "\",'": 101,
      "\",@\"": 102,
      "\",Ċ": 103,
      "\",ĊĊ": 104,
      "\",čĊ": 105,
      "\"-": 106,
      "\".": 107,
      "\".$": 108,
      "\".Ċ": 109,
      "\".ĊĊ": 110,
      "\"/": 111,
      "\"/>": 112,
      "\"/></": 113,
      "\"/>Ċ": 114,
      "\":": 115,
      "\":\"": 116,
      "\":[": 117,
      "\":[\"": 118,
      "\":{\"": 119,
      "\":{Ċ": 120,
      "\":Ċ": 121,
      "\":čĊ": 122,
      "\";": 123,
      "\";Ċ": 124,
      "\";ĊĊ": 125,
      "\";ĊĊĊ": 126,
      "\";čĊ": 127,
      "\";čĊčĊ": 128,
      "\"<": 129,
      "\"</": 130,
      "\"<<": 131,
      "\"=>": 132,
      "\"=>\"": 133,
      "\"=>$": 134,
      "\">": 135,
      "\">&": 136,
      "\">'": 137,
      "\">'.$": 138,
      "\">';Ċ": 139,
      "\"><": 140,
      "\"></": 141,
      "\"><?": 142,
      "\"><?=": 143,
      "\">{": 144,
      "\">{{": 145,
      "\">{{$": 146,
      "\">Ċ": 147,
      "\">ĊĊ": 148,
      "\">čĊ": 149,
      "\">čĊčĊ": 150,
      "\"A": 151,
      "\"He": 152,
      "\"I": 153,
      "\"If": 154,
      "\"In": 155,
      "\"It": 156,
      "\"No": 157,
      "\"That": 158,
      "\"The": 159,
      "\"There": 160,
      "\"They": 161,
      "\"This": 162,
      "\"We": 163,
      "\"What": 164,
      "\"When": 165,
      "\"You": 166,
      "\"[": 167,
      "\"\\": 168,
      "\"]": 169,
      "\"]').": 170,
      "\"])": 171,
      "\"]))": 172,
      "\"]);Ċ": 173,
      "\"])Ċ": 174,
      "\"],": 175,
      "\"],Ċ": 176,
      "\"],čĊ": 177,
      "\"].": 178,
      "\"]:Ċ": 179,
      "\"];": 180,
      "\"];Ċ": 181,
      "\"];ĊĊ": 182,
      "\"];čĊ": 183,
      "\"]=": 184,
      "\"]=\"": 185,
      "\"][": 186,
      "\"][\"": 187,
      "\"]Ċ": 188,
      "\"]ĊĊ": 189,
      "\"_": 190,
      "\"`": 191,
      "\"`Ċ": 192,
      "\"class": 193,
      "\"fmt": 194,
      "\"github": 195,
      "\"group": 196,
      "\"id": 197,
      "\"name": 198,
      "\"net": 199,
      "\"os": 200,
      "\"profile": 201,
      "\"strings": 202,
      "\"time": 203,
      "\"use": 204,
      "\"{": 205,
      "\"}": 206,
      "\"});Ċ": 207,
      "\"})Ċ": 208,
      "\"},": 209,
      "\"},{\"": 210,
      "\"},Ċ": 211,
      "\"};Ċ": 212,
      "\"}}": 213,
      "\"}Ċ": 214,
      "\"Ċ": 215,
      "\"ĊĊ": 216,
      "\"ĊĊĊ": 217,
      "\"čĊ": 218,
      "\"čĊčĊ": 219,
      "#": 220,
      "#!": 221,
      "#!/": 222,
      "##": 223,
      "###": 224,
      "####": 225,
      "########": 226,
      "############": 227,
      "################": 228,
      "################################": 229,
      "################################################": 230,
      "################################################################": 231,
      "############################################################################": 232,
      "###Ċ": 233,
      "##Ċ": 234,
      "#+": 235,
      "#+#+": 236,
      "#[": 237,
      "#a": 238,
      "#define": 239,
      "#elif": 240,
      "#else": 241,
      "#endif": 242,
      "#endregion": 243,
      "#ga": 244,
      "#if": 245,
      "#ifdef": 246,
      "#ifndef": 247,
      "#import": 248,
      "#include": 249,
      "#line": 250,
      "#pragma": 251,
      "#print": 252,
      "#region": 253,
      "#undef": 254,
      "#w": 255,
      "#{": 256,
      "#Ċ": 257,
      "#ĊĊ": 258,
      "$": 259,
      "$$": 260,
      "$',": 261,
      "$(": 262,
      "$(\"#": 263,
      "$(\".": 264,
      "$('": 265,
      "$('#": 266,
      "$('.": 267,
      "$.": 268,
      "$/": 269,
      "$MESS": 270,
      "$_": 271,
      "$_['": 272,
      "$a": 273,
      "$c": 274,
      "$config": 275,
      "$core": 276,
      "$data": 277,
      "$db": 278,
      "$html": 279,
      "$i": 280,
      "$id": 281,
      "$lang": 282,
      "$obj": 283,
      "$output": 284,
      "$page": 285,
      "$pdf": 286,
      "$query": 287,
      "$res": 288,
      "$response": 289,
      "$result": 290,
      "$row": 291,
      "$s": 292,
      "$scope": 293,
      "$sql": 294,
      "$stmt": 295,
      "$string": 296,
      "$t": 297,
      "$table": 298,
      "$this": 299,
      "$user": 300,
      "${": 301,
      "$Ċ": 302,
      "%": 303,
      "%\"": 304,
      "%\",Ċ": 305,
      "%\">Ċ": 306,
      "%%": 307,
      "%%%%": 308,
      "%%%%%%%%": 309,
      "%%%%%%%%%%%%%%%%": 310,
      "%%%%%%%%%%%%%%%%%%%%%%%%%%%%%%%%": 311,
      "%'": 312,
      "%',": 313,
      "%',Ċ": 314,
      "%(": 315,
      "%)": 316,
      "%),": 317,
      "%,": 318,
      "%.": 319,
      "%.ĊĊ": 320,
      "%;": 321,
      "%;Ċ": 322,
      "%=": 323,
      "%E": 324,
      "%d": 325,
      "%s": 326,
      "%x": 327,
      "%Ċ": 328,
      "%ĊĊ": 329,
      "&": 330,
      "&#": 331,
      "&&": 332,
      "&)": 333,
      "&,": 334,
      "&A": 335,
      "&D": 336,
      "&M": 337,
      "&T": 338,
      "&amp": 339,
      "&gt": 340,
      "&lt": 341,
      "&nbsp": 342,
      "&quot": 343,
      "'": 344,
      "'\"": 345,
      "'\");Ċ": 346,
      "'\",": 347,
      "'\",Ċ": 348,
      "'\";Ċ": 349,
      "'%": 350,
      "''": 351,
      "'''": 352,
      "'''Ċ": 353,
      "'''ĊĊ": 354,
      "')": 355,
      "')(": 356,
      "'))": 357,
      "')),Ċ": 358,
      "')).": 359,
      "'));": 360,
      "'));Ċ": 361,
      "'));ĊĊ": 362,
      "'));čĊ": 363,
      "')){Ċ": 364,
      "'))Ċ": 365,
      "'))ĊĊ": 366,
      "'),": 367,
      "'),Ċ": 368,
      "'),čĊ": 369,
      "')->": 370,
      "').": 371,
      "'):": 372,
      "'):Ċ": 373,
      "');": 374,
      "');Ċ": 375,
      "');ĊĊ": 376,
      "');ĊĊĊ": 377,
      "');čĊ": 378,
      "');čĊčĊ": 379,
      "')[": 380,
      "'){Ċ": 381,
      "')}": 382,
      "')}}": 383,
      "')}}\"": 384,
      "')}Ċ": 385,
      "')Ċ": 386,
      "')ĊĊ": 387,
      "')ĊĊĊ": 388,
      "')čĊ": 389,
      "')čĊčĊ": 390,
      "'+": 391,
      "',": 392,
      "',\"": 393,
      "',$": 394,
      "','": 395,
      "','$": 396,
      "',[": 397,
      "',['": 398,
      "',['../": 399,
      "',Ċ": 400,
      "',ĊĊ": 401,
      "',čĊ": 402,
      "'-": 403,
      "'.": 404,
      "'.$": 405,
      "'.Ċ": 406,
      "'.ĊĊ": 407,
      "'/": 408,
      "':": 409,
      "':'": 410,
      "':Ċ": 411,
      "':čĊ": 412,
      "';": 413,
      "';Ċ": 414,
      "';ĊĊ": 415,
      "';ĊĊĊ": 416,
      "';čĊ": 417,
      "';čĊčĊ": 418,
      "'<": 419,
      "'</": 420,
      "'=>": 421,
      "'=>$": 422,
      "'=>'": 423,
      "'>": 424,
      "'>\"": 425,
      "'>\";Ċ": 426,
      "'><": 427,
      "'></": 428,
      "'>Ċ": 429,
      "'D": 430,
      "'M": 431,
      "'S": 432,
      "'T": 433,
      "'\\": 434,
      "']": 435,
      "']\").": 436,
      "'])": 437,
      "']))": 438,
      "']));Ċ": 439,
      "'])){Ċ": 440,
      "']))Ċ": 441,
      "']),": 442,
      "']),Ċ": 443,
      "'])->": 444,
      "']).": 445,
      "']);": 446,
      "']);Ċ": 447,
      "']);ĊĊ": 448,
      "']);čĊ": 449,
      "'])Ċ": 450,
      "'])ĊĊ": 451,
      "'])čĊ": 452,
      "'],": 453,
      "'],'": 454,
      "'],Ċ": 455,
      "'],čĊ": 456,
      "']->": 457,
      "'].": 458,
      "'].\"": 459,
      "'].'": 460,
      "']/": 461,
      "']:Ċ": 462,
      "'];": 463,
      "'];Ċ": 464,
      "'];ĊĊ": 465,
      "'];čĊ": 466,
      "']=": 467,
      "']=$": 468,
      "']='": 469,
      "']==": 470,
      "']=='": 471,
      "'][": 472,
      "'][$": 473,
      "']['": 474,
      "'][]": 475,
      "']]": 476,
      "']]],Ċ": 477,
      "']}": 478,
      "']Ċ": 479,
      "']ĊĊ": 480,
      "']čĊ": 481,
      "'^": 482,
      "'_": 483,
      "'a": 484,
      "'ai": 485,
      "'d": 486,
      "'est": 487,
      "'h": 488,
      "'id": 489,
      "'il": 490,
      "'label": 491,
      "'ll": 492,
      "'m": 493,
      "'name": 494,
      "'re": 495,
      "'s": 496,
      "'t": 497,
      "'un": 498,
      "'une": 499,
      "'use": 500,
      "'ve": 501,
      "'{": 502,
      "'}": 503,
      "'}),Ċ": 504,
      "'});Ċ": 505,
      "'})Ċ": 506,
      "'},": 507,
      "'},Ċ": 508,
      "'};Ċ": 509,
      "'}}": 510,
      "'}Ċ": 511,
      "'Ã©": 512,
      "'Ċ": 513,
      "'ĊĊ": 514,
      "'ĊĊĊ": 515,
      "'čĊ": 516,
      "(": 517,
      "(!": 518,
      "(!$": 519,
      "(!(": 520,
      "(\"": 521,
      "(\"\"": 522,
      "(\"\")": 523,
      "(\"\");Ċ": 524,
      "(\"\")Ċ": 525,
      "(\"\",": 526,
      "(\"#": 527,
      "(\"$": 528,
      "(\"${": 529,
      "(\"%": 530,
      "(\"&": 531,
      "(\"(": 532,
      "(\"*": 533,
      "(\"+": 534,
      "(\",": 535,
      "(\"-": 536,
      "(\"--": 537,
      "(\".": 538,
      "(\"../": 539,
      "(\"../../": 540,
      "(\"./": 541,
      "(\"/": 542,
      "(\"/\",": 543,
      "(\"//": 544,
      "(\":": 545,
      "(\"<": 546,
      "(\"</": 547,
      "(\"@": 548,
      "(\"[": 549,
      "(\"\\": 550,
      "(\"\\\"": 551,
      "(\"\\\\": 552,
      "(\"_": 553,
      "(\"{": 554,
      "(\"|": 555,
      "(#": 556,
      "($": 557,
      "($\"": 558,
      "($(": 559,
      "($(\"#": 560,
      "($('#": 561,
      "($_": 562,
      "(${": 563,
      "(%": 564,
      "(&": 565,
      "(&(": 566,
      "('": 567,
      "('\"": 568,
      "('#": 569,
      "('$": 570,
      "('%": 571,
      "('');Ċ": 572,
      "('')Ċ": 573,
      "('',": 574,
      "('*": 575,
      "(',": 576,
      "(',',": 577,
      "('-": 578,
      "('--": 579,
      "('.": 580,
      "('../": 581,
      "('../../": 582,
      "('./": 583,
      "('/": 584,
      "('/',": 585,
      "(':": 586,
      "('<": 587,
      "('@": 588,
      "('[": 589,
      "('\\": 590,
      "('_": 591,
      "('{": 592,
      "((": 593,
      "((\"": 594,
      "(($": 595,
      "(((": 596,
      "(()": 597,
      "((*": 598,
      "(({": 599,
      "()": 600,
      "()!=": 601,
      "()\"": 602,
      "()(": 603,
      "())": 604,
      "()))": 605,
      "())).": 606,
      "()));Ċ": 607,
      "()));ĊĊ": 608,
      "()));čĊ": 609,
      "()))Ċ": 610,
      "()),": 611,
      "()),Ċ": 612,
      "())->": 613,
      "()).": 614,
      "()):Ċ": 615,
      "());": 616,
      "());Ċ": 617,
      "());ĊĊ": 618,
      "());čĊ": 619,
      "());čĊčĊ": 620,
      "()){Ċ": 621,
      "())Ċ": 622,
      "())ĊĊ": 623,
      "())čĊ": 624,
      "()*": 625,
      "()+": 626,
      "()+\"": 627,
      "(),": 628,
      "(),Ċ": 629,
      "(),čĊ": 630,
      "()-": 631,
      "()->": 632,
      "().": 633,
      "().__": 634,
      "().Ċ": 635,
      "()/": 636,
      "():": 637,
      "():Ċ": 638,
      "():ĊĊ": 639,
      "():čĊ": 640,
      "();": 641,
      "();//": 642,
      "();?>": 643,
      "();Ċ": 644,
      "();ĊĊ": 645,
      "();ĊĊĊ": 646,
      "();čĊ": 647,
      "();čĊčĊ": 648,
      "()==": 649,
      "()>": 650,
      "()[": 651,
      "()['": 652,
      "()]": 653,
      "()];Ċ": 654,
      "()]Ċ": 655,
      "(){": 656,
      "(){Ċ": 657,
      "(){ĊĊ": 658,
      "(){čĊ": 659,
      "()}": 660,
      "()}Ċ": 661,
      "()Ċ": 662,
      "()ĊĊ": 663,
      "()ĊĊĊ": 664,
      "()čĊ": 665,
      "()čĊčĊ": 666,
      "(*": 667,
      "(*(": 668,
      "(*)": 669,
      "(**": 670,
      "(-": 671,
      "(--": 672,
      "(.": 673,
      "(...": 674,
      "(/": 675,
      "(/\\": 676,
      "(:": 677,
      "(:,": 678,
      "(:,:,": 679,
      "(::": 680,
      "(<": 681,
      "(?": 682,
      "(@": 683,
      "(@\"": 684,
      "(A": 685,
      "(Action": 686,
      "(ActionEvent": 687,
      "(App": 688,
      "(Array": 689,
      "(Auth": 690,
      "(B": 691,
      "(Base": 692,
      "(Boolean": 693,
      "(Build": 694,
      "(BuildContext": 695,
      "(Bundle": 696,
      "(By": 697,
      "(ByVal": 698,
      "(C": 699,
      "(CON": 700,
      "(CONFIG": 701,
      "(CType": 702,
      "(Calendar": 703,
      "(Class": 704,
      "(Color": 705,
      "(Config": 706,
      "(Console": 707,
      "(Constants": 708,
      "(Context": 709,
      "(Current": 710,
      "(D": 711,
      "(DB": 712,
      "(Data": 713,
      "(Date": 714,
      "(DateTime": 715,
      "(Double": 716,
      "(E": 717,
      "(ERROR": 718,
      "(EX": 719,
      "(EXIT": 720,
      "(Entity": 721,
      "(Error": 722,
      "(Event": 723,
      "(Exception": 724,
      "(F": 725,
      "(FILE": 726,
      "(False": 727,
      "(File": 728,
      "(Form": 729,
      "(G": 730,
      "(GL": 731,
      "(GPIO": 732,
      "(Game": 733,
      "(Get": 734,
      "(Guid": 735,
      "(H": 736,
      "(Http": 737,
      "(HttpServletRequest": 738,
      "(I": 739,
      "(ID": 740,
      "(IN": 741,
      "(IS": 742,
      "(Icons": 743,
      "(Il": 744,
      "(Image": 745,
      "(Input": 746,
      "(Int": 747,
      "(Integer": 748,
      "(Intent": 749,
      "(Item": 750,
      "(J": 751,
      "(JSON": 752,
      "(Json": 753,
      "(K": 754,
      "(KEY": 755,
      "(Key": 756,
      "(L": 757,
      "(LOG": 758,
      "(Level": 759,
      "(List": 760,
      "(Log": 761,
      "(Long": 762,
      "(M": 763,
      "(Main": 764,
      "(Map": 765,
      "(Math": 766,
      "(Me": 767,
      "(Media": 768,
      "(Menu": 769,
      "(Message": 770,
      "(Method": 771,
      "(Model": 772,
      "(Mouse": 773,
      "(My": 774,
      "(N": 775,
      "(NULL": 776,
      "(Name": 777,
      "(New": 778,
      "(Node": 779,
      "(None": 780,
      "(O": 781,
      "(Object": 782,
      "(Order": 783,
      "(P": 784,
      "(PDO": 785,
      "(Path": 786,
      "(Player": 787,
      "(Point": 788,
      "(Q": 789,
      "(QString": 790,
      "(Qt": 791,
      "(R": 792,
      "(Request": 793,
      "(S": 794,
      "(SQL": 795,
      "(Sender": 796,
      "(Session": 797,
      "(Status": 798,
      "(String": 799,
      "(System": 800,
      "(T": 801,
      "(TAG": 802,
      "(Test": 803,
      "(Text": 804,
      "(This": 805,
      "(Time": 806,
      "(Token": 807,
      "(True": 808,
      "(Type": 809,
      "(U": 810,
      "(User": 811,
      "(V": 812,
      "(Value": 813,
      "(Vector": 814,
      "(View": 815,
      "(W": 816,
      "(X": 817,
      "(Y": 818,
      "(Z": 819,
      "([": 820,
      "([\"": 821,
      "(['": 822,
      "([[": 823,
      "([]": 824,
      "([]);Ċ": 825,
      "([Ċ": 826,
      "(\\": 827,
      "(\\\"": 828,
      "(^": 829,
      "(_": 830,
      "(_.": 831,
      "(__": 832,
      "(`": 833,
      "(`${": 834,
      "(`/": 835,
      "(a": 836,
      "(abs": 837,
      "(account": 838,
      "(action": 839,
      "(activity": 840,
      "(actual": 841,
      "(add": 842,
      "(addr": 843,
      "(address": 844,
      "(admin": 845,
      "(al": 846,
      "(all": 847,
      "(alpha": 848,
      "(always": 849,
      "(amount": 850,
      "(an": 851,
      "(angle": 852,
      "(ans": 853,
      "(answer": 854,
      "(ap": 855,
      "(api": 856,
      "(app": 857,
      "(ar": 858,
      "(arg": 859,
      "(argc": 860,
      "(args": 861,
      "(arguments": 862,
      "(argv": 863,
      "(arr": 864,
      "(array": 865,
      "(as": 866,
      "(async": 867,
      "(at": 868,
      "(attr": 869,
      "(attrs": 870,
      "(auth": 871,
      "(auto": 872,
      "(await": 873,
      "(axis": 874,
      "(b": 875,
      "(base": 876,
      "(batch": 877,
      "(bl": 878,
      "(block": 879,
      "(board": 880,
      "(body": 881,
      "(book": 882,
      "(bool": 883,
      "(boolean": 884,
      "(box": 885,
      "(btn": 886,
      "(buf": 887,
      "(buff": 888,
      "(buffer": 889,
      "(builder": 890,
      "(button": 891,
      "(by": 892,
      "(byte": 893,
      "(bytes": 894,
      "(c": 895,
      "(cache": 896,
      "(call": 897,
      "(callback": 898,
      "(canvas": 899,
      "(card": 900,
      "(category": 901,
      "(cb": 902,
      "(cc": 903,
      "(cell": 904,
      "(cfg": 905,
      "(ch": 906,
      "(chan": 907,
      "(channel": 908,
      "(char": 909,
      "(check": 910,
      "(child": 911,
      "(cl": 912,
      "(class": 913,
      "(client": 914,
      "(cls": 915,
      "(cmd": 916,
      "(co": 917,
      "(code": 918,
      "(col": 919,
      "(collection": 920,
      "(color": 921,
      "(column": 922,
      "(columns": 923,
      "(com": 924,
      "(command": 925,
      "(comment": 926,
      "(comp": 927,
      "(component": 928,
      "(con": 929,
      "(conf": 930,
      "(config": 931,
      "(conn": 932,
      "(connection": 933,
      "(const": 934,
      "(cont": 935,
      "(container": 936,
      "(content": 937,
      "(context": 938,
      "(count": 939,
      "(cr": 940,
      "(create": 941,
      "(ctx": 942,
      "(cur": 943,
      "(curr": 944,
      "(current": 945,
      "(cursor": 946,
      "(customer": 947,
      "(cv": 948,
      "(d": 949,
      "(data": 950,
      "(dataset": 951,
      "(date": 952,
      "(day": 953,
      "(db": 954,
      "(de": 955,
      "(dec": 956,
      "(def": 957,
      "(default": 958,
      "(defun": 959,
      "(delta": 960,
      "(des": 961,
      "(desc": 962,
      "(description": 963,
      "(dest": 964,
      "(dev": 965,
      "(device": 966,
      "(df": 967,
      "(dict": 968,
      "(diff": 969,
      "(dim": 970,
      "(dir": 971,
      "(directory": 972,
      "(dirname": 973,
      "(dis": 974,
      "(dispatch": 975,
      "(display": 976,
      "(disposing": 977,
      "(dist": 978,
      "(div": 979,
      "(doc": 980,
      "(document": 981,
      "(done": 982,
      "(double": 983,
      "(dp": 984,
      "(dr": 985,
      "(driver": 986,
      "(ds": 987,
      "(dst": 988,
      "(dt": 989,
      "(e": 990,
      "(edge": 991,
      "(el": 992,
      "(elem": 993,
      "(element": 994,
      "(email": 995,
      "(empty": 996,
      "(end": 997,
      "(entity": 998,
      "(entry": 999,
      "(env": 1000,
      "(equal": 1001,
      "(equalTo": 1002,
      "(err": 1003,
      "(errno": 1004,
      "(error": 1005,
      "(errors": 1006,
      "(ev": 1007,
      "(event": 1008,
      "(evt": 1009,
      "(ex": 1010,
      "(exception": 1011,
      "(exp": 1012,
      "(expected": 1013,
      "(exports": 1014,
      "(expr": 1015,
      "(express": 1016,
      "(f": 1017,
      "(false": 1018,
      "(fd": 1019,
      "(feature": 1020,
      "(field": 1021,
      "(fields": 1022,
      "(fig": 1023,
      "(file": 1024,
      "(fileName": 1025,
      "(filePath": 1026,
      "(filename": 1027,
      "(filepath": 1028,
      "(files": 1029,
      "(filter": 1030,
      "(final": 1031,
      "(find": 1032,
      "(first": 1033,
      "(flag": 1034,
      "(float": 1035,
      "(fmt": 1036,
      "(fn": 1037,
      "(fname": 1038,
      "(folder": 1039,
      "(font": 1040,
      "(for": 1041,
      "(form": 1042,
      "(format": 1043,
      "(fp": 1044,
      "(frame": 1045,
      "(from": 1046,
      "(fs": 1047,
      "(full": 1048,
      "(func": 1049,
      "(function": 1050,
      "(g": 1051,
      "(game": 1052,
      "(gen": 1053,
      "(get": 1054,
      "(getActivity": 1055,
      "(getApplicationContext": 1056,
      "(getClass": 1057,
      "(gl": 1058,
      "(global": 1059,
      "(gr": 1060,
      "(graph": 1061,
      "(grid": 1062,
      "(group": 1063,
      "(h": 1064,
      "(hObject": 1065,
      "(handle": 1066,
      "(handler": 1067,
      "(handles": 1068,
      "(hash": 1069,
      "(head": 1070,
      "(header": 1071,
      "(height": 1072,
      "(host": 1073,
      "(html": 1074,
      "(http": 1075,
      "(i": 1076,
      "(id": 1077,
      "(idx": 1078,
      "(if": 1079,
      "(ii": 1080,
      "(im": 1081,
      "(image": 1082,
      "(img": 1083,
      "(in": 1084,
      "(ind": 1085,
      "(index": 1086,
      "(info": 1087,
      "(init": 1088,
      "(initial": 1089,
      "(input": 1090,
      "(inputs": 1091,
      "(inst": 1092,
      "(instance": 1093,
      "(int": 1094,
      "(intent": 1095,
      "(inter": 1096,
      "(io": 1097,
      "(ip": 1098,
      "(is": 1099,
      "(isset": 1100,
      "(it": 1101,
      "(item": 1102,
      "(items": 1103,
      "(iter": 1104,
      "(j": 1105,
      "(jLabel": 1106,
      "(jPanel": 1107,
      "(java": 1108,
      "(javax": 1109,
      "(job": 1110,
      "(json": 1111,
      "(k": 1112,
      "(key": 1113,
      "(keys": 1114,
      "(l": 1115,
      "(label": 1116,
      "(labels": 1117,
      "(lambda": 1118,
      "(last": 1119,
      "(lat": 1120,
      "(layer": 1121,
      "(layout": 1122,
      "(left": 1123,
      "(len": 1124,
      "(length": 1125,
      "(let": 1126,
      "(level": 1127,
      "(line": 1128,
      "(lines": 1129,
      "(link": 1130,
      "(list": 1131,
      "(ll": 1132,
      "(loc": 1133,
      "(local": 1134,
      "(localStorage": 1135,
      "(location": 1136,
      "(log": 1137,
      "(logger": 1138,
      "(login": 1139,
      "(long": 1140,
      "(lua": 1141,
      "(m": 1142,
      "(mContext": 1143,
      "(main": 1144,
      "(make": 1145,
      "(map": 1146,
      "(mask": 1147,
      "(mat": 1148,
      "(match": 1149,
      "(math": 1150,
      "(matrix": 1151,
      "(max": 1152,
      "(me": 1153,
      "(mem": 1154,
      "(member": 1155,
      "(menu": 1156,
      "(message": 1157,
      "(method": 1158,
      "(min": 1159,
      "(mock": 1160,
      "(mod": 1161,
      "(mode": 1162,
      "(model": 1163,
      "(models": 1164,
      "(module": 1165,
      "(move": 1166,
      "(ms": 1167,
      "(msg": 1168,
      "(my": 1169,
      "(n": 1170,
      "(name": 1171,
      "(named": 1172,
      "(nameof": 1173,
      "(net": 1174,
      "(new": 1175,
      "(next": 1176,
      "(nil": 1177,
      "(nn": 1178,
      "(no": 1179,
      "(node": 1180,
      "(nodes": 1181,
      "(non": 1182,
      "(nonatomic": 1183,
      "(not": 1184,
      "(now": 1185,
      "(np": 1186,
      "(ns": 1187,
      "(null": 1188,
      "(nullable": 1189,
      "(nullptr": 1190,
      "(num": 1191,
      "(number": 1192,
      "(nums": 1193,
      "(o": 1194,
      "(obj": 1195,
      "(object": 1196,
      "(of": 1197,
      "(offset": 1198,
      "(old": 1199,
      "(on": 1200,
      "(op": 1201,
      "(open": 1202,
      "(opt": 1203,
      "(option": 1204,
      "(options": 1205,
      "(opts": 1206,
      "(order": 1207,
      "(org": 1208,
      "(original": 1209,
      "(os": 1210,
      "(other": 1211,
      "(out": 1212,
      "(output": 1213,
      "(owner": 1214,
      "(p": 1215,
      "(packet": 1216,
      "(page": 1217,
      "(pair": 1218,
      "(par": 1219,
      "(param": 1220,
      "(parameters": 1221,
      "(params": 1222,
      "(parent": 1223,
      "(parse": 1224,
      "(parser": 1225,
      "(part": 1226,
      "(pass": 1227,
      "(password": 1228,
      "(path": 1229,
      "(pattern": 1230,
      "(payload": 1231,
      "(person": 1232,
      "(pid": 1233,
      "(pk": 1234,
      "(pl": 1235,
      "(player": 1236,
      "(point": 1237,
      "(points": 1238,
      "(port": 1239,
      "(pos": 1240,
      "(position": 1241,
      "(post": 1242,
      "(pr": 1243,
      "(pre": 1244,
      "(pred": 1245,
      "(prefix": 1246,
      "(prev": 1247,
      "(private": 1248,
      "(pro": 1249,
      "(process": 1250,
      "(product": 1251,
      "(profile": 1252,
      "(program": 1253,
      "(project": 1254,
      "(prop": 1255,
      "(property": 1256,
      "(props": 1257,
      "(pt": 1258,
      "(ptr": 1259,
      "(public": 1260,
      "(q": 1261,
      "(query": 1262,
      "(queue": 1263,
      "(r": 1264,
      "(rand": 1265,
      "(random": 1266,
      "(range": 1267,
      "(raw": 1268,
      "(rc": 1269,
      "(re": 1270,
      "(read": 1271,
      "(reader": 1272,
      "(rec": 1273,
      "(record": 1274,
      "(rect": 1275,
      "(red": 1276,
      "(ref": 1277,
      "(reg": 1278,
      "(render": 1279,
      "(req": 1280,
      "(request": 1281,
      "(require": 1282,
      "(res": 1283,
      "(resource": 1284,
      "(resp": 1285,
      "(response": 1286,
      "(result": 1287,
      "(results": 1288,
      "(ret": 1289,
      "(return": 1290,
      "(right": 1291,
      "(role": 1292,
      "(room": 1293,
      "(root": 1294,
      "(round": 1295,
      "(route": 1296,
      "(row": 1297,
      "(rows": 1298,
      "(rs": 1299,
      "(rule": 1300,
      "(run": 1301,
      "(s": 1302,
      "(sample": 1303,
      "(save": 1304,
      "(saved": 1305,
      "(savedInstanceState": 1306,
      "(sb": 1307,
      "(sc": 1308,
      "(scene": 1309,
      "(scope": 1310,
      "(score": 1311,
      "(screen": 1312,
      "(se": 1313,
      "(search": 1314,
      "(select": 1315,
      "(selected": 1316,
      "(self": 1317,
      "(sender": 1318,
      "(seq": 1319,
      "(serial": 1320,
      "(server": 1321,
      "(service": 1322,
      "(session": 1323,
      "(set": 1324,
      "(settings": 1325,
      "(sf": 1326,
      "(sh": 1327,
      "(shape": 1328,
      "(short": 1329,
      "(size": 1330,
      "(sizeof": 1331,
      "(sock": 1332,
      "(socket": 1333,
      "(source": 1334,
      "(sp": 1335,
      "(spec": 1336,
      "(split": 1337,
      "(sql": 1338,
      "(src": 1339,
      "(ss": 1340,
      "(st": 1341,
      "(stack": 1342,
      "(start": 1343,
      "(state": 1344,
      "(static": 1345,
      "(status": 1346,
      "(std": 1347,
      "(stderr": 1348,
      "(stdout": 1349,
      "(step": 1350,
      "(store": 1351,
      "(str": 1352,
      "(strategy": 1353,
      "(strcmp": 1354,
      "(stream": 1355,
      "(strict": 1356,
      "(string": 1357,
      "(struct": 1358,
      "(student": 1359,
      "(style": 1360,
      "(sub": 1361,
      "(subject": 1362,
      "(sum": 1363,
      "(sys": 1364,
      "(t": 1365,
      "(tab": 1366,
      "(table": 1367,
      "(tag": 1368,
      "(target": 1369,
      "(task": 1370,
      "(temp": 1371,
      "(template": 1372,
      "(test": 1373,
      "(text": 1374,
      "(tf": 1375,
      "(th": 1376,
      "(the": 1377,
      "(theta": 1378,
      "(this": 1379,
      "(thread": 1380,
      "(time": 1381,
      "(timeout": 1382,
      "(title": 1383,
      "(tmp": 1384,
      "(to": 1385,
      "(token": 1386,
      "(tokens": 1387,
      "(top": 1388,
      "(torch": 1389,
      "(total": 1390,
      "(tp": 1391,
      "(tr": 1392,
      "(train": 1393,
      "(trans": 1394,
      "(transform": 1395,
      "(tree": 1396,
      "(true": 1397,
      "(ts": 1398,
      "(tx": 1399,
      "(txt": 1400,
      "(type": 1401,
      "(typeof": 1402,
      "(u": 1403,
      "(ui": 1404,
      "(uid": 1405,
      "(uint": 1406,
      "(un": 1407,
      "(unit": 1408,
      "(unittest": 1409,
      "(unsigned": 1410,
      "(up": 1411,
      "(update": 1412,
      "(uri": 1413,
      "(url": 1414,
      "(user": 1415,
      "(userId": 1416,
      "(username": 1417,
      "(users": 1418,
      "(v": 1419,
      "(val": 1420,
      "(value": 1421,
      "(values": 1422,
      "(var": 1423,
      "(vec": 1424,
      "(vector": 1425,
      "(version": 1426,
      "(view": 1427,
      "(vm": 1428,
      "(void": 1429,
      "(w": 1430,
      "(web": 1431,
      "(widget": 1432,
      "(width": 1433,
      "(win": 1434,
      "(window": 1435,
      "(with": 1436,
      "(word": 1437,
      "(words": 1438,
      "(work": 1439,
      "(world": 1440,
      "(wrapper": 1441,
      "(writer": 1442,
      "(wx": 1443,
      "(x": 1444,
      "(xml": 1445,
      "(y": 1446,
      "(year": 1447,
      "(z": 1448,
      "(zip": 1449,
      "({": 1450,
      "({\"": 1451,
      "({'": 1452,
      "({},": 1453,
      "({Ċ": 1454,
      "({čĊ": 1455,
      "(|": 1456,
      "(Ċ": 1457,
      "(čĊ": 1458,
      ")": 1459,
      ")!=": 1460,
      ")\"": 1461,
      ")\");Ċ": 1462,
      ")\")Ċ": 1463,
      ")\",": 1464,
      ")\",Ċ": 1465,
      ")\";Ċ": 1466,
      ")\"Ċ": 1467,
      ")$": 1468,
      ")%": 1469,
      ")&": 1470,
      ")&&": 1471,
      ")'": 1472,
      ")')Ċ": 1473,
      ")',": 1474,
      ")',Ċ": 1475,
      ")'Ċ": 1476,
      ")(": 1477,
      ")((": 1478,
      ")(((": 1479,
      "))": 1480,
      "))(": 1481,
      ")))": 1482,
      "))))": 1483,
      ")))));Ċ": 1484,
      ")))),": 1485,
      "))));Ċ": 1486,
      "))))Ċ": 1487,
      "))),": 1488,
      "))).": 1489,
      ")));Ċ": 1490,
      ")));ĊĊ": 1491,
      ")));čĊ": 1492,
      ")))Ċ": 1493,
      ")))ĊĊ": 1494,
      ")))čĊ": 1495,
      "))*": 1496,
      "))+": 1497,
      ")),": 1498,
      ")),Ċ": 1499,
      "))->": 1500,
      ")).": 1501,
      ")).Ċ": 1502,
      "))/": 1503,
      ")):": 1504,
      ")):Ċ": 1505,
      ")):čĊ": 1506,
      "));": 1507,
      "));Ċ": 1508,
      "));ĊĊ": 1509,
      "));čĊ": 1510,
      "));čĊčĊ": 1511,
      "))]Ċ": 1512,
      ")){": 1513,
      ")){Ċ": 1514,
      ")){čĊ": 1515,
      "))Ċ": 1516,
      "))ĊĊ": 1517,
      "))ĊĊĊ": 1518,
      "))čĊ": 1519,
      "))čĊčĊ": 1520,
      ")*": 1521,
      ")*(": 1522,
      ")**": 1523,
      ")+": 1524,
      ")+\"": 1525,
      ")+'": 1526,
      "),": 1527,
      "),\"": 1528,
      "),'": 1529,
      "),(": 1530,
      "),Ċ": 1531,
      "),ĊĊ": 1532,
      "),čĊ": 1533,
      ")-": 1534,
      ")--": 1535,
      ")->": 1536,
      ").": 1537,
      ")...": 1538,
      ").__": 1539,
      ").Ċ": 1540,
      ").ĊĊ": 1541,
      ").ĊĊĊĊ": 1542,
      ").čĊ": 1543,
      ")/": 1544,
      ")/(": 1545,
      ")//": 1546,
      "):": 1547,
      "):-": 1548,
      "):Ċ": 1549,
      "):ĊĊ": 1550,
      "):čĊ": 1551,
      ");": 1552,
      ");//": 1553,
      ");}Ċ": 1554,
      ");Ċ": 1555,
      ");ĊĊ": 1556,
      ");ĊĊĊ": 1557,
      ");ĊĊĊĊ": 1558,
      ");čĊ": 1559,
      ");čĊčĊ": 1560,
      ");čĊčĊčĊ": 1561,
      ")<": 1562,
      ")</": 1563,
      ")<<": 1564,
      ")=": 1565,
      ")==": 1566,
      ")=>": 1567,
      ")=>{Ċ": 1568,
      ")>": 1569,
      ")?": 1570,
      ")L": 1571,
      ")[": 1572,
      ")\\": 1573,
      ")]": 1574,
      ")])Ċ": 1575,
      ")],": 1576,
      ")],Ċ": 1577,
      ")].": 1578,
      ")];Ċ": 1579,
      ")]Ċ": 1580,
      ")]ĊĊ": 1581,
      ")]čĊ": 1582,
      ")^": 1583,
      ")_": 1584,
      ")arg": 1585,
      ")findViewById": 1586,
      ")initWith": 1587,
      ")s": 1588,
      ")sender": 1589,
      ")this": 1590,
      ")view": 1591,
      "){": 1592,
      "){Ċ": 1593,
      "){ĊĊ": 1594,
      "){čĊ": 1595,
      ")|": 1596,
      ")}": 1597,
      ")},Ċ": 1598,
      ")}>Ċ": 1599,
      ")}Ċ": 1600,
      ")Ċ": 1601,
      ")ĊĊ": 1602,
      ")ĊĊĊ": 1603,
      ")ĊĊĊĊ": 1604,
      ")čĊ": 1605,
      ")čĊčĊ": 1606,
      ")čĊčĊčĊ": 1607,
      "*": 1608,
      "*$": 1609,
      "*(": 1610,
      "*(-": 1611,
      "*)": 1612,
      "*)&": 1613,
      "*)(": 1614,
      "*);Ċ": 1615,
      "*)Ċ": 1616,
      "**": 1617,
      "***": 1618,
      "****": 1619,
      "*****": 1620,
      "******": 1621,
      "*******": 1622,
      "********": 1623,
      "****************": 1624,
      "********************": 1625,
      "************************": 1626,
      "****************************": 1627,
      "********************************": 1628,
      "****************************************************************": 1629,
      "************************************************************************": 1630,
      "****************************************************************************": 1631,
      "*******/Ċ": 1632,
      "*******Ċ": 1633,
      "******/": 1634,
      "******/Ċ": 1635,
      "***Ċ": 1636,
      "**/Ċ": 1637,
      "**Ċ": 1638,
      "*,": 1639,
      "*.": 1640,
      "*/": 1641,
      "*/,": 1642,
      "*/,Ċ": 1643,
      "*/Ċ": 1644,
      "*/ĊĊ": 1645,
      "*/ĊĊĊ": 1646,
      "*/čĊ": 1647,
      "*/čĊčĊ": 1648,
      "*</": 1649,
      "*>": 1650,
      "*>(": 1651,
      "*a": 1652,
      "*b": 1653,
      "*c": 1654,
      "*d": 1655,
      "*i": 1656,
      "*m": 1657,
      "*n": 1658,
      "*np": 1659,
      "*p": 1660,
      "*r": 1661,
      "*s": 1662,
      "*sizeof": 1663,
      "*t": 1664,
      "*x": 1665,
      "*y": 1666,
      "*Ċ": 1667,
      "*ĊĊ": 1668,
      "*čĊ": 1669,
      "+": 1670,
      "+\"": 1671,
      "+\"/": 1672,
      "+\"\\": 1673,
      "+#": 1674,
      "+$": 1675,
      "+'": 1676,
      "+'/": 1677,
      "+'</": 1678,
      "+(": 1679,
      "+)": 1680,
      "++": 1681,
      "++)": 1682,
      "++){Ċ": 1683,
      "++){čĊ": 1684,
      "++)Ċ": 1685,
      "++)čĊ": 1686,
      "++++": 1687,
      "++++++++": 1688,
      "++,": 1689,
      "++.": 1690,
      "++;": 1691,
      "++;Ċ": 1692,
      "++;ĊĊ": 1693,
      "++;čĊ": 1694,
      "++]": 1695,
      "++Ċ": 1696,
      "+-": 1697,
      "+-+-": 1698,
      "+:": 1699,
      "+=": 1700,
      "+b": 1701,
      "+i": 1702,
      "+j": 1703,
      "+n": 1704,
      "+x": 1705,
      "+Ċ": 1706,
      ",": 1707,
      ",\"": 1708,
      ",\"%": 1709,
      ",#": 1710,
      ",$": 1711,
      ",%": 1712,
      ",&": 1713,
      ",'": 1714,
      ",(": 1715,
      ",*": 1716,
      ",,": 1717,
      ",,,,": 1718,
      ",-": 1719,
      ",.": 1720,
      ",...": 1721,
      ",...ĊĊ": 1722,
      ",//": 1723,
      ",:": 1724,
      ",:)": 1725,
      ",:,": 1726,
      ",@": 1727,
      ",A": 1728,
      ",B": 1729,
      ",C": 1730,
      ",D": 1731,
      ",F": 1732,
      ",G": 1733,
      ",I": 1734,
      ",L": 1735,
      ",M": 1736,
      ",N": 1737,
      ",NULL": 1738,
      ",Object": 1739,
      ",P": 1740,
      ",R": 1741,
      ",S": 1742,
      ",String": 1743,
      ",System": 1744,
      ",T": 1745,
      ",V": 1746,
      ",X": 1747,
      ",Y": 1748,
      ",[": 1749,
      ",\\": 1750,
      ",_": 1751,
      ",a": 1752,
      ",b": 1753,
      ",c": 1754,
      ",const": 1755,
      ",d": 1756,
      ",data": 1757,
      ",double": 1758,
      ",e": 1759,
      ",f": 1760,
      ",false": 1761,
      ",function": 1762,
      ",g": 1763,
      ",h": 1764,
      ",height": 1765,
      ",i": 1766,
      ",id": 1767,
      ",int": 1768,
      ",j": 1769,
      ",k": 1770,
      ",l": 1771,
      ",len": 1772,
      ",m": 1773,
      ",max": 1774,
      ",n": 1775,
      ",name": 1776,
      ",new": 1777,
      ",nil": 1778,
      ",null": 1779,
      ",num": 1780,
      ",omitempty": 1781,
      ",p": 1782,
      ",q": 1783,
      ",r": 1784,
      ",re": 1785,
      ",res": 1786,
      ",s": 1787,
      ",self": 1788,
      ",size": 1789,
      ",sizeof": 1790,
      ",string": 1791,
      ",t": 1792,
      ",text": 1793,
      ",this": 1794,
      ",true": 1795,
      ",u": 1796,
      ",v": 1797,
      ",value": 1798,
      ",w": 1799,
      ",x": 1800,
      ",y": 1801,
      ",z": 1802,
      ",{": 1803,
      ",âĢĻ": 1804,
      ",âĢĿ": 1805,
      ",Ċ": 1806,
      ",ĊĊ": 1807,
      ",ĊĊĊĊ": 1808,
      ",čĊ": 1809,
      "-": 1810,
      "-\"": 1811,
      "-$": 1812,
      "-${": 1813,
      "-%": 1814,
      "-'": 1815,
      "-(": 1816,
      "-,": 1817,
      "--": 1818,
      "--)": 1819,
      "--)Ċ": 1820,
      "---": 1821,
      "----": 1822,
      "-----": 1823,
      "------": 1824,
      "-------": 1825,
      "--------": 1826,
      "---------": 1827,
      "----------": 1828,
      "-----------": 1829,
      "------------": 1830,
      "-------------": 1831,
      "---------------": 1832,
      "----------------": 1833,
      "----------------------------": 1834,
      "--------------------------------": 1835,
      "------------------------------------------------": 1836,
      "----------------------------------------------------------------": 1837,
      "----------------------------------------------------------------------------": 1838,
      "--------------------------------------------------------------------------Ċ": 1839,
      "-------------</": 1840,
      "-----------Ċ": 1841,
      "----------Ċ": 1842,
      "---------Ċ": 1843,
      "--------Ċ": 1844,
      "-------Ċ": 1845,
      "------Ċ": 1846,
      "-----Ċ": 1847,
      "----</": 1848,
      "----Ċ": 1849,
      "---Ċ": 1850,
      "--;Ċ": 1851,
      "-->": 1852,
      "-->Ċ": 1853,
      "-->ĊĊ": 1854,
      "-->čĊ": 1855,
      "--}}Ċ": 1856,
      "--Ċ": 1857,
      "--ĊĊ": 1858,
      "-.": 1859,
      "-=": 1860,
      "->": 1861,
      "->$": 1862,
      "->_": 1863,
      "->__": 1864,
      "->{": 1865,
      "->{$": 1866,
      "->{'": 1867,
      "-A": 1868,
      "-Allow": 1869,
      "-American": 1870,
      "-B": 1871,
      "-C": 1872,
      "-Ch": 1873,
      "-Compatible": 1874,
      "-Control": 1875,
      "-D": 1876,
      "-E": 1877,
      "-F": 1878,
      "-FIRST": 1879,
      "-Fi": 1880,
      "-G": 1881,
      "-H": 1882,
      "-I": 1883,
      "-Identifier": 1884,
      "-In": 1885,
      "-J": 1886,
      "-K": 1887,
      "-L": 1888,
      "-LAST": 1889,
      "-License": 1890,
      "-M": 1891,
      "-MM": 1892,
      "-Mail": 1893,
      "-Man": 1894,
      "-N": 1895,
      "-NLS": 1896,
      "-O": 1897,
      "-P": 1898,
      "-Q": 1899,
      "-R": 1900,
      "-S": 1901,
      "-Sh": 1902,
      "-St": 1903,
      "-Star": 1904,
      "-T": 1905,
      "-Type": 1906,
      "-U": 1907,
      "-UA": 1908,
      "-US": 1909,
      "-V": 1910,
      "-W": 1911,
      "-X": 1912,
      "-Y": 1913,
      "-Z": 1914,
      "-Za": 1915,
      "-\\": 1916,
      "-a": 1917,
      "-ab": 1918,
      "-ac": 1919,
      "-action": 1920,
      "-active": 1921,
      "-ad": 1922,
      "-add": 1923,
      "-addon": 1924,
      "-admin": 1925,
      "-air": 1926,
      "-al": 1927,
      "-align": 1928,
      "-all": 1929,
      "-alt": 1930,
      "-am": 1931,
      "-an": 1932,
      "-and": 1933,
      "-angle": 1934,
      "-api": 1935,
      "-app": 1936,
      "-area": 1937,
      "-arrow": 1938,
      "-art": 1939,
      "-as": 1940,
      "-ass": 1941,
      "-at": 1942,
      "-auth": 1943,
      "-auto": 1944,
      "-awesome": 1945,
      "-axis": 1946,
      "-b": 1947,
      "-back": 1948,
      "-bar": 1949,
      "-base": 1950,
      "-based": 1951,
      "-be": 1952,
      "-being": 1953,
      "-between": 1954,
      "-bg": 1955,
      "-bit": 1956,
      "-bl": 1957,
      "-black": 1958,
      "-block": 1959,
      "-blue": 1960,
      "-body": 1961,
      "-bold": 1962,
      "-book": 1963,
      "-bootstrap": 1964,
      "-border": 1965,
      "-bordered": 1966,
      "-born": 1967,
      "-bottom": 1968,
      "-box": 1969,
      "-br": 1970,
      "-brand": 1971,
      "-break": 1972,
      "-browser": 1973,
      "-btn": 1974,
      "-buffer": 1975,
      "-build": 1976,
      "-button": 1977,
      "-by": 1978,
      "-c": 1979,
      "-cache": 1980,
      "-called": 1981,
      "-cap": 1982,
      "-car": 1983,
      "-card": 1984,
      "-cart": 1985,
      "-case": 1986,
      "-cell": 1987,
      "-cent": 1988,
      "-center": 1989,
      "-century": 1990,
      "-ch": 1991,
      "-che": 1992,
      "-check": 1993,
      "-child": 1994,
      "-circle": 1995,
      "-cl": 1996,
      "-class": 1997,
      "-click": 1998,
      "-client": 1999,
      "-close": 2000,
      "-co": 2001,
      "-code": 2002,
      "-col": 2003,
      "-collapse": 2004,
      "-color": 2005,
      "-column": 2006,
      "-com": 2007,
      "-components": 2008,
      "-con": 2009,
      "-config": 2010,
      "-cont": 2011,
      "-container": 2012,
      "-content": 2013,
      "-control": 2014,
      "-controls": 2015,
      "-core": 2016,
      "-count": 2017,
      "-create": 2018,
      "-custom": 2019,
      "-d": 2020,
      "-danger": 2021,
      "-dark": 2022,
      "-data": 2023,
      "-date": 2024,
      "-day": 2025,
      "-dd": 2026,
      "-de": 2027,
      "-decoration": 2028,
      "-def": 2029,
      "-default": 2030,
      "-defined": 2031,
      "-degree": 2032,
      "-depend": 2033,
      "-depth": 2034,
      "-des": 2035,
      "-detail": 2036,
      "-details": 2037,
      "-dev": 2038,
      "-dialog": 2039,
      "-dimensional": 2040,
      "-direction": 2041,
      "-dis": 2042,
      "-disable": 2043,
      "-dismiss": 2044,
      "-div": 2045,
      "-do": 2046,
      "-doc": 2047,
      "-dom": 2048,
      "-down": 2049,
      "-dr": 2050,
      "-driven": 2051,
      "-e": 2052,
      "-east": 2053,
      "-ed": 2054,
      "-edit": 2055,
      "-effect": 2056,
      "-elect": 2057,
      "-element": 2058,
      "-em": 2059,
      "-empty": 2060,
      "-en": 2061,
      "-end": 2062,
      "-equiv": 2063,
      "-error": 2064,
      "-es": 2065,
      "-event": 2066,
      "-ex": 2067,
      "-exp": 2068,
      "-expanded": 2069,
      "-f": 2070,
      "-face": 2071,
      "-family": 2072,
      "-fe": 2073,
      "-feedback": 2074,
      "-fi": 2075,
      "-field": 2076,
      "-file": 2077,
      "-filter": 2078,
      "-first": 2079,
      "-five": 2080,
      "-fl": 2081,
      "-flex": 2082,
      "-fluid": 2083,
      "-fold": 2084,
      "-font": 2085,
      "-foot": 2086,
      "-footer": 2087,
      "-for": 2088,
      "-form": 2089,
      "-format": 2090,
      "-found": 2091,
      "-founder": 2092,
      "-free": 2093,
      "-friendly": 2094,
      "-from": 2095,
      "-full": 2096,
      "-function": 2097,
      "-fw": 2098,
      "-g": 2099,
      "-game": 2100,
      "-gen": 2101,
      "-generated": 2102,
      "-get": 2103,
      "-go": 2104,
      "-gr": 2105,
      "-gray": 2106,
      "-green": 2107,
      "-grid": 2108,
      "-group": 2109,
      "-h": 2110,
      "-half": 2111,
      "-hand": 2112,
      "-handed": 2113,
      "-he": 2114,
      "-head": 2115,
      "-header": 2116,
      "-heading": 2117,
      "-height": 2118,
      "-hidden": 2119,
      "-high": 2120,
      "-home": 2121,
      "-hook": 2122,
      "-horizontal": 2123,
      "-host": 2124,
      "-hour": 2125,
      "-house": 2126,
      "-hover": 2127,
      "-i": 2128,
      "-icon": 2129,
      "-icons": 2130,
      "-id": 2131,
      "-im": 2132,
      "-image": 2133,
      "-img": 2134,
      "-in": 2135,
      "-inch": 2136,
      "-income": 2137,
      "-ind": 2138,
      "-index": 2139,
      "-induced": 2140,
      "-info": 2141,
      "-inline": 2142,
      "-inner": 2143,
      "-input": 2144,
      "-ins": 2145,
      "-inst": 2146,
      "-int": 2147,
      "-invalid": 2148,
      "-is": 2149,
      "-it": 2150,
      "-item": 2151,
      "-items": 2152,
      "-j": 2153,
      "-js": 2154,
      "-k": 2155,
      "-key": 2156,
      "-known": 2157,
      "-l": 2158,
      "-label": 2159,
      "-labelled": 2160,
      "-labelledby": 2161,
      "-large": 2162,
      "-law": 2163,
      "-layout": 2164,
      "-le": 2165,
      "-led": 2166,
      "-left": 2167,
      "-length": 2168,
      "-level": 2169,
      "-lg": 2170,
      "-lib": 2171,
      "-life": 2172,
      "-light": 2173,
      "-like": 2174,
      "-line": 2175,
      "-link": 2176,
      "-list": 2177,
      "-ln": 2178,
      "-lo": 2179,
      "-loader": 2180,
      "-login": 2181,
      "-logo": 2182,
      "-long": 2183,
      "-looking": 2184,
      "-m": 2185,
      "-made": 2186,
      "-mail": 2187,
      "-main": 2188,
      "-making": 2189,
      "-man": 2190,
      "-map": 2191,
      "-mark": 2192,
      "-md": 2193,
      "-me": 2194,
      "-menu": 2195,
      "-message": 2196,
      "-min": 2197,
      "-minded": 2198,
      "-minute": 2199,
      "-mod": 2200,
      "-modal": 2201,
      "-mode": 2202,
      "-model": 2203,
      "-month": 2204,
      "-muted": 2205,
      "-n": 2206,
      "-name": 2207,
      "-native": 2208,
      "-nav": 2209,
      "-navigation": 2210,
      "-new": 2211,
      "-next": 2212,
      "-no": 2213,
      "-node": 2214,
      "-none": 2215,
      "-not": 2216,
      "-num": 2217,
      "-number": 2218,
      "-o": 2219,
      "-of": 2220,
      "-off": 2221,
      "-offset": 2222,
      "-old": 2223,
      "-on": 2224,
      "-one": 2225,
      "-only": 2226,
      "-op": 2227,
      "-open": 2228,
      "-options": 2229,
      "-or": 2230,
      "-order": 2231,
      "-oriented": 2232,
      "-out": 2233,
      "-outline": 2234,
      "-over": 2235,
      "-owned": 2236,
      "-p": 2237,
      "-page": 2238,
      "-pane": 2239,
      "-panel": 2240,
      "-parser": 2241,
      "-part": 2242,
      "-party": 2243,
      "-password": 2244,
      "-path": 2245,
      "-per": 2246,
      "-person": 2247,
      "-pl": 2248,
      "-play": 2249,
      "-plugin": 2250,
      "-plus": 2251,
      "-point": 2252,
      "-position": 2253,
      "-post": 2254,
      "-power": 2255,
      "-pr": 2256,
      "-pre": 2257,
      "-price": 2258,
      "-primary": 2259,
      "-pro": 2260,
      "-product": 2261,
      "-profile": 2262,
      "-profit": 2263,
      "-project": 2264,
      "-quality": 2265,
      "-r": 2266,
      "-radius": 2267,
      "-range": 2268,
      "-ray": 2269,
      "-re": 2270,
      "-react": 2271,
      "-read": 2272,
      "-red": 2273,
      "-redux": 2274,
      "-reg": 2275,
      "-related": 2276,
      "-repeat": 2277,
      "-res": 2278,
      "-responsive": 2279,
      "-right": 2280,
      "-root": 2281,
      "-round": 2282,
      "-router": 2283,
      "-row": 2284,
      "-run": 2285,
      "-s": 2286,
      "-sc": 2287,
      "-scale": 2288,
      "-school": 2289,
      "-screen": 2290,
      "-scroll": 2291,
      "-sdk": 2292,
      "-se": 2293,
      "-search": 2294,
      "-season": 2295,
      "-secondary": 2296,
      "-section": 2297,
      "-select": 2298,
      "-ser": 2299,
      "-serif": 2300,
      "-server": 2301,
      "-service": 2302,
      "-set": 2303,
      "-sex": 2304,
      "-sh": 2305,
      "-shadow": 2306,
      "-shaped": 2307,
      "-shirt": 2308,
      "-show": 2309,
      "-side": 2310,
      "-sidebar": 2311,
      "-sign": 2312,
      "-site": 2313,
      "-size": 2314,
      "-sized": 2315,
      "-slide": 2316,
      "-slider": 2317,
      "-sm": 2318,
      "-small": 2319,
      "-so": 2320,
      "-source": 2321,
      "-sp": 2322,
      "-space": 2323,
      "-specific": 2324,
      "-speed": 2325,
      "-square": 2326,
      "-st": 2327,
      "-star": 2328,
      "-start": 2329,
      "-state": 2330,
      "-status": 2331,
      "-step": 2332,
      "-store": 2333,
      "-stream": 2334,
      "-string": 2335,
      "-strip": 2336,
      "-striped": 2337,
      "-style": 2338,
      "-sub": 2339,
      "-success": 2340,
      "-system": 2341,
      "-t": 2342,
      "-tab": 2343,
      "-table": 2344,
      "-tabs": 2345,
      "-tag": 2346,
      "-target": 2347,
      "-template": 2348,
      "-term": 2349,
      "-test": 2350,
      "-text": 2351,
      "-th": 2352,
      "-the": 2353,
      "-theme": 2354,
      "-third": 2355,
      "-time": 2356,
      "-title": 2357,
      "-to": 2358,
      "-toggle": 2359,
      "-token": 2360,
      "-top": 2361,
      "-touch": 2362,
      "-tr": 2363,
      "-trans": 2364,
      "-transform": 2365,
      "-two": 2366,
      "-type": 2367,
      "-types": 2368,
      "-ui": 2369,
      "-un": 2370,
      "-up": 2371,
      "-update": 2372,
      "-ups": 2373,
      "-url": 2374,
      "-us": 2375,
      "-use": 2376,
      "-user": 2377,
      "-v": 2378,
      "-value": 2379,
      "-variable": 2380,
      "-view": 2381,
      "-w": 2382,
      "-warning": 2383,
      "-way": 2384,
      "-web": 2385,
      "-week": 2386,
      "-weight": 2387,
      "-west": 2388,
      "-white": 2389,
      "-wide": 2390,
      "-widget": 2391,
      "-width": 2392,
      "-wing": 2393,
      "-winning": 2394,
      "-with": 2395,
      "-word": 2396,
      "-work": 2397,
      "-world": 2398,
      "-wrap": 2399,
      "-wrapper": 2400,
      "-wsj": 2401,
      "-x": 2402,
      "-xl": 2403,
      "-xs": 2404,
      "-y": 2405,
      "-yard": 2406,
      "-year": 2407,
      "-z": 2408,
      "-zA": 2409,
      "-zero": 2410,
      "-Ċ": 2411,
      "-ĊĊ": 2412,
      ".": 2413,
      ".\"": 2414,
      ".\"\"": 2415,
      ".\"\"\"Ċ": 2416,
      ".\"\"\"ĊĊ": 2417,
      ".\"'": 2418,
      ".\")": 2419,
      ".\");Ċ": 2420,
      ".\");ĊĊ": 2421,
      ".\");čĊ": 2422,
      ".\")Ċ": 2423,
      ".\")ĊĊ": 2424,
      ".\",": 2425,
      ".\",Ċ": 2426,
      ".\".": 2427,
      ".\";Ċ": 2428,
      ".\"Ċ": 2429,
      ".\"ĊĊ": 2430,
      ".\"ĊĊĊ": 2431,
      ".\"ĊĊĊĊ": 2432,
      ".$": 2433,
      ".%": 2434,
      ".'": 2435,
      ".'\"": 2436,
      ".');Ċ": 2437,
      ".')Ċ": 2438,
      ".',": 2439,
      ".',Ċ": 2440,
      ".'.": 2441,
      ".'/": 2442,
      ".';Ċ": 2443,
      ".'</": 2444,
      ".'Ċ": 2445,
      ".'ĊĊ": 2446,
      ".(": 2447,
      ".)": 2448,
      ".),": 2449,
      ".).": 2450,
      ".)Ċ": 2451,
      ".)ĊĊ": 2452,
      ".*": 2453,
      ".*;Ċ": 2454,
      ".*;ĊĊ": 2455,
      ".*Ċ": 2456,
      ".,": 2457,
      ".,Ċ": 2458,
      ".-": 2459,
      ".--": 2460,
      "..": 2461,
      "..\"": 2462,
      "...": 2463,
      "...\"": 2464,
      "...\");Ċ": 2465,
      "...\")Ċ": 2466,
      "...\"Ċ": 2467,
      "...)": 2468,
      "...)Ċ": 2469,
      "...,": 2470,
      "....": 2471,
      ".....": 2472,
      "......": 2473,
      "........": 2474,
      "................": 2475,
      "................................": 2476,
      "....ĊĊ": 2477,
      "...</": 2478,
      "...\\": 2479,
      "...Ċ": 2480,
      "...ĊĊ": 2481,
      "...ĊĊĊĊ": 2482,
      "...čĊ": 2483,
      "../": 2484,
      "../../": 2485,
      "../../../": 2486,
      "..Ċ": 2487,
      "..ĊĊ": 2488,
      "./": 2489,
      ".:": 2490,
      ".;": 2491,
      ".;Ċ": 2492,
      ".<": 2493,
      ".</": 2494,
      ".=": 2495,
      ".A": 2496,
      ".ACTION": 2497,
      ".AP": 2498,
      ".API": 2499,
      ".APPLICATION": 2500,
      ".Ab": 2501,
      ".Abs": 2502,
      ".Absolute": 2503,
      ".Abstract": 2504,
      ".Access": 2505,
      ".Account": 2506,
      ".Act": 2507,
      ".Action": 2508,
      ".ActionEvent": 2509,
      ".ActionListener": 2510,
      ".Active": 2511,
      ".Activity": 2512,
      ".Ad": 2513,
      ".Adapter": 2514,
      ".Add": 2515,
      ".AddRange": 2516,
      ".AddWithValue": 2517,
      ".Address": 2518,
      ".Admin": 2519,
      ".After": 2520,
      ".Al": 2521,
      ".Alignment": 2522,
      ".All": 2523,
      ".Allow": 2524,
      ".An": 2525,
      ".Anchor": 2526,
      ".AnchorStyles": 2527,
      ".And": 2528,
      ".Any": 2529,
      ".Ap": 2530,
      ".Api": 2531,
      ".App": 2532,
      ".AppCompatActivity": 2533,
      ".Appearance": 2534,
      ".Append": 2535,
      ".AppendLine": 2536,
      ".Application": 2537,
      ".Apply": 2538,
      ".Are": 2539,
      ".AreEqual": 2540,
      ".Arg": 2541,
      ".Argument": 2542,
      ".ArgumentParser": 2543,
      ".Array": 2544,
      ".ArrayList": 2545,
      ".Arrays": 2546,
      ".As": 2547,
      ".AspNet": 2548,
      ".AspNetCore": 2549,
      ".Ass": 2550,
      ".Assert": 2551,
      ".At": 2552,
      ".Attribute": 2553,
      ".Attributes": 2554,
      ".Auth": 2555,
      ".Author": 2556,
      ".Auto": 2557,
      ".AutoScale": 2558,
      ".AutoScaleDimensions": 2559,
      ".AutoScaleMode": 2560,
      ".AutoSize": 2561,
      ".Autowired": 2562,
      ".B": 2563,
      ".BASE": 2564,
      ".BL": 2565,
      ".Back": 2566,
      ".BackColor": 2567,
      ".Background": 2568,
      ".BackgroundImage": 2569,
      ".Base": 2570,
      ".Before": 2571,
      ".Begin": 2572,
      ".Bind": 2573,
      ".Binding": 2574,
      ".Bitmap": 2575,
      ".Bl": 2576,
      ".Black": 2577,
      ".Block": 2578,
      ".Body": 2579,
      ".Bold": 2580,
      ".Boolean": 2581,
      ".Border": 2582,
      ".BorderStyle": 2583,
      ".Bottom": 2584,
      ".Buffer": 2585,
      ".Build": 2586,
      ".Builder": 2587,
      ".Bundle": 2588,
      ".Business": 2589,
      ".Button": 2590,
      ".Byte": 2591,
      ".Bytes": 2592,
      ".C": 2593,
      ".CENTER": 2594,
      ".CH": 2595,
      ".CL": 2596,
      ".COM": 2597,
      ".CON": 2598,
      ".Call": 2599,
      ".Cancel": 2600,
      ".Category": 2601,
      ".Cell": 2602,
      ".Cells": 2603,
      ".Center": 2604,
      ".Ch": 2605,
      ".Change": 2606,
      ".Channel": 2607,
      ".Char": 2608,
      ".CharField": 2609,
      ".Check": 2610,
      ".CheckBox": 2611,
      ".Checked": 2612,
      ".Child": 2613,
      ".Children": 2614,
      ".Cl": 2615,
      ".Class": 2616,
      ".Clear": 2617,
      ".Click": 2618,
      ".Client": 2619,
      ".ClientSize": 2620,
      ".Close": 2621,
      ".Code": 2622,
      ".Collection": 2623,
      ".Collections": 2624,
      ".Color": 2625,
      ".Column": 2626,
      ".Columns": 2627,
      ".Com": 2628,
      ".Combine": 2629,
      ".ComboBox": 2630,
      ".Command": 2631,
      ".CommandText": 2632,
      ".Common": 2633,
      ".Compare": 2634,
      ".Compiler": 2635,
      ".Component": 2636,
      ".ComponentModel": 2637,
      ".ComponentPlacement": 2638,
      ".ComponentResourceManager": 2639,
      ".Con": 2640,
      ".Config": 2641,
      ".Configuration": 2642,
      ".Connection": 2643,
      ".Constants": 2644,
      ".Cont": 2645,
      ".Container": 2646,
      ".Contains": 2647,
      ".ContainsKey": 2648,
      ".Content": 2649,
      ".ContentAlignment": 2650,
      ".Context": 2651,
      ".Control": 2652,
      ".Controller": 2653,
      ".Controllers": 2654,
      ".Controls": 2655,
      ".Conv": 2656,
      ".Convert": 2657,
      ".Copy": 2658,
      ".Core": 2659,
      ".Count": 2660,
      ".Create": 2661,
      ".Current": 2662,
      ".Cursor": 2663,
      ".Custom": 2664,
      ".Customer": 2665,
      ".D": 2666,
      ".DB": 2667,
      ".DE": 2668,
      ".DEBUG": 2669,
      ".DEFAULT": 2670,
      ".Data": 2671,
      ".DataAnnotations": 2672,
      ".DataBind": 2673,
      ".DataFrame": 2674,
      ".DataGridView": 2675,
      ".DataGridViewTextBoxColumn": 2676,
      ".DataSource": 2677,
      ".Database": 2678,
      ".Date": 2679,
      ".DateTime": 2680,
      ".DateTimeField": 2681,
      ".De": 2682,
      ".Debug": 2683,
      ".Dec": 2684,
      ".Default": 2685,
      ".Delete": 2686,
      ".Dep": 2687,
      ".Des": 2688,
      ".Description": 2689,
      ".Deserialize": 2690,
      ".Diagnostics": 2691,
      ".Dialog": 2692,
      ".Dis": 2693,
      ".Display": 2694,
      ".Dispose": 2695,
      ".Do": 2696,
      ".Dock": 2697,
      ".DockStyle": 2698,
      ".Document": 2699,
      ".Domain": 2700,
      ".Dot": 2701,
      ".Double": 2702,
      ".Draw": 2703,
      ".Drawing": 2704,
      ".Drop": 2705,
      ".DropDown": 2706,
      ".Duration": 2707,
      ".E": 2708,
      ".ERROR": 2709,
      ".EX": 2710,
      ".Edit": 2711,
      ".Editor": 2712,
      ".Element": 2713,
      ".Email": 2714,
      ".Empty": 2715,
      ".En": 2716,
      ".Enable": 2717,
      ".Enabled": 2718,
      ".Enc": 2719,
      ".End": 2720,
      ".Entities": 2721,
      ".Entity": 2722,
      ".EntityFramework": 2723,
      ".EntityFrameworkCore": 2724,
      ".Entry": 2725,
      ".Equal": 2726,
      ".Equals": 2727,
      ".Err": 2728,
      ".Error": 2729,
      ".Errorf": 2730,
      ".Event": 2731,
      ".EventHandler": 2732,
      ".Events": 2733,
      ".Ex": 2734,
      ".Exception": 2735,
      ".Exec": 2736,
      ".Execute": 2737,
      ".ExecuteNonQuery": 2738,
      ".ExecuteReader": 2739,
      ".Exists": 2740,
      ".Exit": 2741,
      ".Ext": 2742,
      ".Extensions": 2743,
      ".F": 2744,
      ".FLAG": 2745,
      ".Fat": 2746,
      ".Fatal": 2747,
      ".Fatalf": 2748,
      ".Field": 2749,
      ".File": 2750,
      ".FileName": 2751,
      ".Fill": 2752,
      ".Filter": 2753,
      ".Find": 2754,
      ".First": 2755,
      ".FirstOrDefault": 2756,
      ".Fixed": 2757,
      ".Flat": 2758,
      ".FlatStyle": 2759,
      ".Float": 2760,
      ".Font": 2761,
      ".FontStyle": 2762,
      ".For": 2763,
      ".Fore": 2764,
      ".ForeColor": 2765,
      ".ForeignKey": 2766,
      ".Form": 2767,
      ".Format": 2768,
      ".Forms": 2769,
      ".Fragment": 2770,
      ".Frame": 2771,
      ".Framework": 2772,
      ".From": 2773,
      ".FromArgb": 2774,
      ".Full": 2775,
      ".Function": 2776,
      ".G": 2777,
      ".GET": 2778,
      ".GL": 2779,
      ".GONE": 2780,
      ".Game": 2781,
      ".Generic": 2782,
      ".Get": 2783,
      ".GetBytes": 2784,
      ".GetComponent": 2785,
      ".GetObject": 2786,
      ".GetString": 2787,
      ".GetType": 2788,
      ".GetValue": 2789,
      ".Global": 2790,
      ".Graphics": 2791,
      ".GraphicsUnit": 2792,
      ".Grid": 2793,
      ".Group": 2794,
      ".GroupBox": 2795,
      ".GroupLayout": 2796,
      ".H": 2797,
      ".HTTP": 2798,
      ".Hand": 2799,
      ".Handle": 2800,
      ".Handler": 2801,
      ".Has": 2802,
      ".Hash": 2803,
      ".HashMap": 2804,
      ".Header": 2805,
      ".HeaderText": 2806,
      ".Height": 2807,
      ".Horizontal": 2808,
      ".Host": 2809,
      ".Http": 2810,
      ".HttpServletRequest": 2811,
      ".HttpServletResponse": 2812,
      ".I": 2813,
      ".IContainer": 2814,
      ".ID": 2815,
      ".IN": 2816,
      ".INFO": 2817,
      ".IO": 2818,
      ".IOException": 2819,
      ".IS": 2820,
      ".ISupportInitialize": 2821,
      ".Icon": 2822,
      ".Id": 2823,
      ".Identity": 2824,
      ".If": 2825,
      ".Im": 2826,
      ".Image": 2827,
      ".ImageView": 2828,
      ".In": 2829,
      ".Index": 2830,
      ".IndexOf": 2831,
      ".Inf": 2832,
      ".Info": 2833,
      ".Init": 2834,
      ".Initial": 2835,
      ".Inner": 2836,
      ".Input": 2837,
      ".InputStream": 2838,
      ".Insert": 2839,
      ".Instance": 2840,
      ".Int": 2841,
      ".Integer": 2842,
      ".IntegerField": 2843,
      ".Intent": 2844,
      ".Inter": 2845,
      ".Interfaces": 2846,
      ".Internal": 2847,
      ".Interop": 2848,
      ".InteropServices": 2849,
      ".Invoke": 2850,
      ".Is": 2851,
      ".IsNullOr": 2852,
      ".IsNullOrEmpty": 2853,
      ".IsNullOrWhiteSpace": 2854,
      ".IsTrue": 2855,
      ".IsValid": 2856,
      ".It": 2857,
      ".Item": 2858,
      ".Items": 2859,
      ".Iter": 2860,
      ".J": 2861,
      ".JButton": 2862,
      ".JLabel": 2863,
      ".JPanel": 2864,
      ".JSON": 2865,
      ".JTextField": 2866,
      ".Join": 2867,
      ".Json": 2868,
      ".K": 2869,
      ".KEY": 2870,
      ".Key": 2871,
      ".Keys": 2872,
      ".L": 2873,
      ".LE": 2874,
      ".LEADING": 2875,
      ".LENGTH": 2876,
      ".LOG": 2877,
      ".Label": 2878,
      ".Last": 2879,
      ".LatLng": 2880,
      ".Layout": 2881,
      ".LayoutInflater": 2882,
      ".LayoutParams": 2883,
      ".LayoutStyle": 2884,
      ".Le": 2885,
      ".Left": 2886,
      ".Length": 2887,
      ".Level": 2888,
      ".Line": 2889,
      ".Linear": 2890,
      ".LinearLayout": 2891,
      ".Link": 2892,
      ".Linq": 2893,
      ".List": 2894,
      ".Load": 2895,
      ".Local": 2896,
      ".Location": 2897,
      ".Lock": 2898,
      ".Log": 2899,
      ".Logger": 2900,
      ".LoggerFactory": 2901,
      ".Login": 2902,
      ".Look": 2903,
      ".M": 2904,
      ".MAX": 2905,
      ".MIN": 2906,
      ".Main": 2907,
      ".Man": 2908,
      ".Many": 2909,
      ".Map": 2910,
      ".Margin": 2911,
      ".Marshal": 2912,
      ".Match": 2913,
      ".Max": 2914,
      ".Media": 2915,
      ".Menu": 2916,
      ".Message": 2917,
      ".Method": 2918,
      ".Middle": 2919,
      ".Migrations": 2920,
      ".Min": 2921,
      ".Mock": 2922,
      ".Mod": 2923,
      ".Model": 2924,
      ".Models": 2925,
      ".Module": 2926,
      ".Mouse": 2927,
      ".Move": 2928,
      ".Msg": 2929,
      ".Mvc": 2930,
      ".My": 2931,
      ".N": 2932,
      ".NET": 2933,
      ".NODE": 2934,
      ".Name": 2935,
      ".Net": 2936,
      ".Network": 2937,
      ".New": 2938,
      ".NewLine": 2939,
      ".Next": 2940,
      ".No": 2941,
      ".NoError": 2942,
      ".Node": 2943,
      ".Non": 2944,
      ".NonNull": 2945,
      ".None": 2946,
      ".Normal": 2947,
      ".Not": 2948,
      ".Now": 2949,
      ".Null": 2950,
      ".Nullable": 2951,
      ".Num": 2952,
      ".Number": 2953,
      ".O": 2954,
      ".OK": 2955,
      ".Object": 2956,
      ".On": 2957,
      ".OnClickListener": 2958,
      ".One": 2959,
      ".Open": 2960,
      ".Optional": 2961,
      ".Options": 2962,
      ".Order": 2963,
      ".Output": 2964,
      ".P": 2965,
      ".PI": 2966,
      ".PL": 2967,
      ".POST": 2968,
      ".PREFERRED": 2969,
      ".PRO": 2970,
      ".Padding": 2971,
      ".Page": 2972,
      ".Panel": 2973,
      ".Param": 2974,
      ".Parameter": 2975,
      ".Parameters": 2976,
      ".Parent": 2977,
      ".Parse": 2978,
      ".Password": 2979,
      ".Path": 2980,
      ".Per": 2981,
      ".Perform": 2982,
      ".PerformLayout": 2983,
      ".Ph": 2984,
      ".PictureBox": 2985,
      ".Pl": 2986,
      ".Play": 2987,
      ".Player": 2988,
      ".Point": 2989,
      ".Position": 2990,
      ".Post": 2991,
      ".Pr": 2992,
      ".Pre": 2993,
      ".Primary": 2994,
      ".Print": 2995,
      ".Printf": 2996,
      ".Println": 2997,
      ".Pro": 2998,
      ".Process": 2999,
      ".Product": 3000,
      ".Project": 3001,
      ".Properties": 3002,
      ".Property": 3003,
      ".Provider": 3004,
      ".Push": 3005,
      ".Put": 3006,
      ".Q": 3007,
      ".Qt": 3008,
      ".Qu": 3009,
      ".Query": 3010,
      ".R": 3011,
      ".RE": 3012,
      ".RadioButton": 3013,
      ".Random": 3014,
      ".Range": 3015,
      ".Re": 3016,
      ".Read": 3017,
      ".ReadLine": 3018,
      ".ReadOnly": 3019,
      ".Rec": 3020,
      ".Rect": 3021,
      ".RecyclerView": 3022,
      ".Red": 3023,
      ".Redirect": 3024,
      ".Ref": 3025,
      ".Reflection": 3026,
      ".Reg": 3027,
      ".Register": 3028,
      ".Regular": 3029,
      ".Rel": 3030,
      ".Rem": 3031,
      ".Remove": 3032,
      ".Render": 3033,
      ".Replace": 3034,
      ".Report": 3035,
      ".Repository": 3036,
      ".Request": 3037,
      ".RequestMapping": 3038,
      ".Res": 3039,
      ".Reset": 3040,
      ".Resource": 3041,
      ".Resources": 3042,
      ".Response": 3043,
      ".ResponseWriter": 3044,
      ".Rest": 3045,
      ".Result": 3046,
      ".Resume": 3047,
      ".ResumeLayout": 3048,
      ".Right": 3049,
      ".Role": 3050,
      ".Round": 3051,
      ".Router": 3052,
      ".Row": 3053,
      ".Rows": 3054,
      ".Run": 3055,
      ".Runtime": 3056,
      ".S": 3057,
      ".SE": 3058,
      ".SEVER": 3059,
      ".SEVERE": 3060,
      ".SQL": 3061,
      ".ST": 3062,
      ".STRING": 3063,
      ".Save": 3064,
      ".SaveChanges": 3065,
      ".Sc": 3066,
      ".Scanner": 3067,
      ".Scene": 3068,
      ".Schema": 3069,
      ".Screen": 3070,
      ".Se": 3071,
      ".Search": 3072,
      ".Second": 3073,
      ".Security": 3074,
      ".Select": 3075,
      ".Selected": 3076,
      ".SelectedIndex": 3077,
      ".SelectedItem": 3078,
      ".SelectedValue": 3079,
      ".Selection": 3080,
      ".Send": 3081,
      ".Serial": 3082,
      ".Serializable": 3083,
      ".Serialization": 3084,
      ".Serialize": 3085,
      ".Series": 3086,
      ".Server": 3087,
      ".Service": 3088,
      ".Services": 3089,
      ".Servlet": 3090,
      ".Session": 3091,
      ".Set": 3092,
      ".SetActive": 3093,
      ".Settings": 3094,
      ".Setup": 3095,
      ".Sh": 3096,
      ".Shared": 3097,
      ".Should": 3098,
      ".Show": 3099,
      ".ShowDialog": 3100,
      ".Simple": 3101,
      ".Single": 3102,
      ".Size": 3103,
      ".SizeF": 3104,
      ".Sleep": 3105,
      ".Sort": 3106,
      ".Source": 3107,
      ".Spec": 3108,
      ".Split": 3109,
      ".Spring": 3110,
      ".Sprintf": 3111,
      ".Sql": 3112,
      ".St": 3113,
      ".Start": 3114,
      ".State": 3115,
      ".Status": 3116,
      ".StatusCode": 3117,
      ".Std": 3118,
      ".Stop": 3119,
      ".Store": 3120,
      ".Str": 3121,
      ".Stream": 3122,
      ".String": 3123,
      ".Style": 3124,
      ".Sub": 3125,
      ".Substring": 3126,
      ".Success": 3127,
      ".Sup": 3128,
      ".SuspendLayout": 3129,
      ".System": 3130,
      ".SystemColors": 3131,
      ".T": 3132,
      ".TR": 3133,
      ".TYPE": 3134,
      ".Tab": 3135,
      ".TabIndex": 3136,
      ".TabStop": 3137,
      ".Table": 3138,
      ".Tables": 3139,
      ".Tag": 3140,
      ".Target": 3141,
      ".Task": 3142,
      ".Tasks": 3143,
      ".Test": 3144,
      ".TestCase": 3145,
      ".Tests": 3146,
      ".Text": 3147,
      ".TextAlign": 3148,
      ".TextBox": 3149,
      ".TextField": 3150,
      ".TextView": 3151,
      ".Th": 3152,
      ".That": 3153,
      ".The": 3154,
      ".This": 3155,
      ".Thread": 3156,
      ".Threading": 3157,
      ".Time": 3158,
      ".Title": 3159,
      ".To": 3160,
      ".ToArray": 3161,
      ".ToInt": 3162,
      ".ToList": 3163,
      ".ToLower": 3164,
      ".ToString": 3165,
      ".Toast": 3166,
      ".Token": 3167,
      ".Tool": 3168,
      ".ToolStrip": 3169,
      ".ToolStripMenuItem": 3170,
      ".Top": 3171,
      ".Total": 3172,
      ".Tr": 3173,
      ".Trans": 3174,
      ".Transaction": 3175,
      ".Transparent": 3176,
      ".Trim": 3177,
      ".True": 3178,
      ".Try": 3179,
      ".TryParse": 3180,
      ".Type": 3181,
      ".Types": 3182,
      ".U": 3183,
      ".UI": 3184,
      ".UN": 3185,
      ".URL": 3186,
      ".USER": 3187,
      ".UTF": 3188,
      ".UUID": 3189,
      ".Un": 3190,
      ".Undef": 3191,
      ".UndefOr": 3192,
      ".Unit": 3193,
      ".Unlock": 3194,
      ".Unmarshal": 3195,
      ".Update": 3196,
      ".Uri": 3197,
      ".Use": 3198,
      ".UseVisualStyleBackColor": 3199,
      ".User": 3200,
      ".UserId": 3201,
      ".Users": 3202,
      ".Util": 3203,
      ".Utils": 3204,
      ".V": 3205,
      ".VERSION": 3206,
      ".VISIBLE": 3207,
      ".Value": 3208,
      ".Values": 3209,
      ".Vector": 3210,
      ".Version": 3211,
      ".Vert": 3212,
      ".View": 3213,
      ".ViewGroup": 3214,
      ".ViewHolder": 3215,
      ".ViewModel": 3216,
      ".ViewModels": 3217,
      ".Views": 3218,
      ".Visibility": 3219,
      ".Visible": 3220,
      ".Visual": 3221,
      ".Void": 3222,
      ".W": 3223,
      ".Wait": 3224,
      ".We": 3225,
      ".Web": 3226,
      ".WebControls": 3227,
      ".Wh": 3228,
      ".Where": 3229,
      ".White": 3230,
      ".Width": 3231,
      ".Win": 3232,
      ".Window": 3233,
      ".Windows": 3234,
      ".With": 3235,
      ".Work": 3236,
      ".Wrap": 3237,
      ".Write": 3238,
      ".WriteLine": 3239,
      ".X": 3240,
      ".XR": 3241,
      ".Xml": 3242,
      ".Xtra": 3243,
      ".XtraEditors": 3244,
      ".XtraGrid": 3245,
      ".XtraReports": 3246,
      ".Y": 3247,
      ".You": 3248,
      ".Z": 3249,
      ".Zero": 3250,
      ".[": 3251,
      ".\\": 3252,
      ".]": 3253,
      ".]ĊĊ": 3254,
      "._": 3255,
      ".__": 3256,
      "._Ċ": 3257,
      "._ĊĊ": 3258,
      ".`": 3259,
      ".a": 3260,
      ".ab": 3261,
      ".abs": 3262,
      ".abspath": 3263,
      ".ac": 3264,
      ".accept": 3265,
      ".access": 3266,
      ".account": 3267,
      ".action": 3268,
      ".actions": 3269,
      ".active": 3270,
      ".activity": 3271,
      ".ad": 3272,
      ".adapter": 3273,
      ".add": 3274,
      ".addAction": 3275,
      ".addActionListener": 3276,
      ".addAll": 3277,
      ".addAttribute": 3278,
      ".addChild": 3279,
      ".addClass": 3280,
      ".addEventListener": 3281,
      ".addItem": 3282,
      ".addListener": 3283,
      ".addSubview": 3284,
      ".addWidget": 3285,
      ".address": 3286,
      ".admin": 3287,
      ".ag": 3288,
      ".age": 3289,
      ".al": 3290,
      ".alert": 3291,
      ".all": 3292,
      ".alpha": 3293,
      ".am": 3294,
      ".amazon": 3295,
      ".amazonaws": 3296,
      ".amount": 3297,
      ".an": 3298,
      ".and": 3299,
      ".android": 3300,
      ".anim": 3301,
      ".animate": 3302,
      ".animation": 3303,
      ".annot": 3304,
      ".annotation": 3305,
      ".annotations": 3306,
      ".any": 3307,
      ".ap": 3308,
      ".apache": 3309,
      ".api": 3310,
      ".app": 3311,
      ".appcompat": 3312,
      ".append": 3313,
      ".appendChild": 3314,
      ".apple": 3315,
      ".application": 3316,
      ".apply": 3317,
      ".apps": 3318,
      ".ar": 3319,
      ".arange": 3320,
      ".arch": 3321,
      ".area": 3322,
      ".arg": 3323,
      ".args": 3324,
      ".argv": 3325,
      ".array": 3326,
      ".as": 3327,
      ".asInstanceOf": 3328,
      ".asList": 3329,
      ".asarray": 3330,
      ".aspx": 3331,
      ".assert": 3332,
      ".assertEqual": 3333,
      ".assertEquals": 3334,
      ".assertFalse": 3335,
      ".assertNotNull": 3336,
      ".assertRaises": 3337,
      ".assertTrue": 3338,
      ".asset": 3339,
      ".assign": 3340,
      ".async": 3341,
      ".at": 3342,
      ".attach": 3343,
      ".attr": 3344,
      ".attribute": 3345,
      ".attributes": 3346,
      ".au": 3347,
      ".audio": 3348,
      ".aut": 3349,
      ".auth": 3350,
      ".author": 3351,
      ".auto": 3352,
      ".avatar": 3353,
      ".aw": 3354,
      ".aws": 3355,
      ".awt": 3356,
      ".ax": 3357,
      ".axis": 3358,
      ".b": 3359,
      ".back": 3360,
      ".backend": 3361,
      ".background": 3362,
      ".backgroundColor": 3363,
      ".bad": 3364,
      ".balance": 3365,
      ".bar": 3366,
      ".base": 3367,
      ".basename": 3368,
      ".basic": 3369,
      ".batch": 3370,
      ".be": 3371,
      ".bean": 3372,
      ".beans": 3373,
      ".begin": 3374,
      ".bg": 3375,
      ".bin": 3376,
      ".bind": 3377,
      ".binding": 3378,
      ".bit": 3379,
      ".bits": 3380,
      ".bl": 3381,
      ".black": 3382,
      ".blit": 3383,
      ".block": 3384,
      ".blog": 3385,
      ".blue": 3386,
      ".board": 3387,
      ".body": 3388,
      ".bold": 3389,
      ".book": 3390,
      ".bool": 3391,
      ".boot": 3392,
      ".bootstrap": 3393,
      ".bootstrapcdn": 3394,
      ".border": 3395,
      ".bot": 3396,
      ".bottom": 3397,
      ".bounds": 3398,
      ".box": 3399,
      ".br": 3400,
      ".browser": 3401,
      ".bt": 3402,
      ".btn": 3403,
      ".buffer": 3404,
      ".build": 3405,
      ".builder": 3406,
      ".bukkit": 3407,
      ".bunifu": 3408,
      ".business": 3409,
      ".button": 3410,
      ".by": 3411,
      ".c": 3412,
      ".ca": 3413,
      ".cache": 3414,
      ".cal": 3415,
      ".call": 3416,
      ".callback": 3417,
      ".camera": 3418,
      ".can": 3419,
      ".cancel": 3420,
      ".canvas": 3421,
      ".cap": 3422,
      ".car": 3423,
      ".card": 3424,
      ".cart": 3425,
      ".cast": 3426,
      ".cat": 3427,
      ".category": 3428,
      ".cb": 3429,
      ".cc": 3430,
      ".ceil": 3431,
      ".cell": 3432,
      ".center": 3433,
      ".cfg": 3434,
      ".ch": 3435,
      ".change": 3436,
      ".channel": 3437,
      ".channels": 3438,
      ".char": 3439,
      ".charAt": 3440,
      ".chart": 3441,
      ".chat": 3442,
      ".check": 3443,
      ".checkBox": 3444,
      ".checked": 3445,
      ".child": 3446,
      ".children": 3447,
      ".choice": 3448,
      ".circular": 3449,
      ".city": 3450,
      ".cl": 3451,
      ".class": 3452,
      ".classList": 3453,
      ".className": 3454,
      ".clean": 3455,
      ".clear": 3456,
      ".click": 3457,
      ".client": 3458,
      ".clip": 3459,
      ".clone": 3460,
      ".close": 3461,
      ".cloud": 3462,
      ".cloudflare": 3463,
      ".cmd": 3464,
      ".cn": 3465,
      ".co": 3466,
      ".code": 3467,
      ".col": 3468,
      ".collect": 3469,
      ".collection": 3470,
      ".color": 3471,
      ".colors": 3472,
      ".cols": 3473,
      ".column": 3474,
      ".columns": 3475,
      ".com": 3476,
      ".comboBox": 3477,
      ".comm": 3478,
      ".command": 3479,
      ".commands": 3480,
      ".comment": 3481,
      ".commit": 3482,
      ".common": 3483,
      ".commons": 3484,
      ".comp": 3485,
      ".company": 3486,
      ".compare": 3487,
      ".compile": 3488,
      ".component": 3489,
      ".componentInstance": 3490,
      ".components": 3491,
      ".compose": 3492,
      ".compute": 3493,
      ".con": 3494,
      ".concat": 3495,
      ".concatenate": 3496,
      ".concurrent": 3497,
      ".conf": 3498,
      ".config": 3499,
      ".configuration": 3500,
      ".configure": 3501,
      ".configureTestingModule": 3502,
      ".confirm": 3503,
      ".conn": 3504,
      ".connect": 3505,
      ".connection": 3506,
      ".const": 3507,
      ".constant": 3508,
      ".constants": 3509,
      ".constraint": 3510,
      ".constraints": 3511,
      ".constructor": 3512,
      ".cont": 3513,
      ".contact": 3514,
      ".container": 3515,
      ".contains": 3516,
      ".containsKey": 3517,
      ".content": 3518,
      ".context": 3519,
      ".contrib": 3520,
      ".control": 3521,
      ".controller": 3522,
      ".controls": 3523,
      ".conv": 3524,
      ".convert": 3525,
      ".cookie": 3526,
      ".copy": 3527,
      ".cor": 3528,
      ".core": 3529,
      ".cos": 3530,
      ".cost": 3531,
      ".count": 3532,
      ".country": 3533,
      ".course": 3534,
      ".cpp": 3535,
      ".create": 3536,
      ".createElement": 3537,
      ".createParallelGroup": 3538,
      ".createSequentialGroup": 3539,
      ".created": 3540,
      ".cs": 3541,
      ".css": 3542,
      ".csv": 3543,
      ".ctx": 3544,
      ".cuda": 3545,
      ".cur": 3546,
      ".current": 3547,
      ".currentTarget": 3548,
      ".currentTime": 3549,
      ".currentTimeMillis": 3550,
      ".cursor": 3551,
      ".custom": 3552,
      ".customer": 3553,
      ".d": 3554,
      ".dao": 3555,
      ".dart": 3556,
      ".dat": 3557,
      ".data": 3558,
      ".dataGridView": 3559,
      ".dataSource": 3560,
      ".datab": 3561,
      ".database": 3562,
      ".datas": 3563,
      ".dataset": 3564,
      ".date": 3565,
      ".datetime": 3566,
      ".day": 3567,
      ".db": 3568,
      ".de": 3569,
      ".debug": 3570,
      ".dec": 3571,
      ".decode": 3572,
      ".decor": 3573,
      ".deep": 3574,
      ".def": 3575,
      ".default": 3576,
      ".define": 3577,
      ".defineProperty": 3578,
      ".del": 3579,
      ".delegate": 3580,
      ".delete": 3581,
      ".delta": 3582,
      ".deltaTime": 3583,
      ".demo": 3584,
      ".des": 3585,
      ".desc": 3586,
      ".description": 3587,
      ".design": 3588,
      ".dest": 3589,
      ".destination": 3590,
      ".destroy": 3591,
      ".detail": 3592,
      ".detect": 3593,
      ".detectChanges": 3594,
      ".dev": 3595,
      ".device": 3596,
      ".di": 3597,
      ".dialog": 3598,
      ".dim": 3599,
      ".dir": 3600,
      ".direct": 3601,
      ".direction": 3602,
      ".dirname": 3603,
      ".dis": 3604,
      ".disabled": 3605,
      ".dismiss": 3606,
      ".dispatch": 3607,
      ".display": 3608,
      ".dispose": 3609,
      ".dist": 3610,
      ".distance": 3611,
      ".div": 3612,
      ".dll": 3613,
      ".do": 3614,
      ".doc": 3615,
      ".document": 3616,
      ".dom": 3617,
      ".domain": 3618,
      ".done": 3619,
      ".dot": 3620,
      ".down": 3621,
      ".download": 3622,
      ".dr": 3623,
      ".draw": 3624,
      ".drawable": 3625,
      ".driver": 3626,
      ".drop": 3627,
      ".dt": 3628,
      ".dto": 3629,
      ".dump": 3630,
      ".dumps": 3631,
      ".duration": 3632,
      ".e": 3633,
      ".each": 3634,
      ".ec": 3635,
      ".eclipse": 3636,
      ".ed": 3637,
      ".edit": 3638,
      ".editor": 3639,
      ".edu": 3640,
      ".el": 3641,
      ".element": 3642,
      ".elements": 3643,
      ".em": 3644,
      ".email": 3645,
      ".emf": 3646,
      ".emit": 3647,
      ".emplace": 3648,
      ".empty": 3649,
      ".en": 3650,
      ".enable": 3651,
      ".enabled": 3652,
      ".encode": 3653,
      ".end": 3654,
      ".ends": 3655,
      ".engine": 3656,
      ".enter": 3657,
      ".entities": 3658,
      ".entity": 3659,
      ".entries": 3660,
      ".entry": 3661,
      ".env": 3662,
      ".environ": 3663,
      ".ep": 3664,
      ".eq": 3665,
      ".equal": 3666,
      ".equalTo": 3667,
      ".equals": 3668,
      ".equalsIgnoreCase": 3669,
      ".erase": 3670,
      ".err": 3671,
      ".error": 3672,
      ".errors": 3673,
      ".es": 3674,
      ".et": 3675,
      ".eu": 3676,
      ".eval": 3677,
      ".evaluate": 3678,
      ".event": 3679,
      ".events": 3680,
      ".ex": 3681,
      ".example": 3682,
      ".exception": 3683,
      ".exceptions": 3684,
      ".exe": 3685,
      ".exec": 3686,
      ".execute": 3687,
      ".executeQuery": 3688,
      ".executeUpdate": 3689,
      ".exists": 3690,
      ".exit": 3691,
      ".exp": 3692,
      ".expand": 3693,
      ".expect": 3694,
      ".exports": 3695,
      ".ext": 3696,
      ".extend": 3697,
      ".extract": 3698,
      ".f": 3699,
      ".facebook": 3700,
      ".factory": 3701,
      ".fail": 3702,
      ".fast": 3703,
      ".fasterxml": 3704,
      ".feature": 3705,
      ".features": 3706,
      ".fetch": 3707,
      ".field": 3708,
      ".fields": 3709,
      ".figure": 3710,
      ".file": 3711,
      ".filename": 3712,
      ".files": 3713,
      ".fill": 3714,
      ".filter": 3715,
      ".find": 3716,
      ".findAll": 3717,
      ".findBy": 3718,
      ".findById": 3719,
      ".findElement": 3720,
      ".findOne": 3721,
      ".findViewById": 3722,
      ".findall": 3723,
      ".fire": 3724,
      ".firebase": 3725,
      ".first": 3726,
      ".firstName": 3727,
      ".fit": 3728,
      ".fl": 3729,
      ".flags": 3730,
      ".float": 3731,
      ".floor": 3732,
      ".flow": 3733,
      ".flush": 3734,
      ".fn": 3735,
      ".focus": 3736,
      ".font": 3737,
      ".for": 3738,
      ".forEach": 3739,
      ".form": 3740,
      ".format": 3741,
      ".forms": 3742,
      ".forward": 3743,
      ".fr": 3744,
      ".fragment": 3745,
      ".frame": 3746,
      ".framework": 3747,
      ".from": 3748,
      ".fromJson": 3749,
      ".front": 3750,
      ".full": 3751,
      ".func": 3752,
      ".function": 3753,
      ".g": 3754,
      ".game": 3755,
      ".gameObject": 3756,
      ".ge": 3757,
      ".gen": 3758,
      ".generate": 3759,
      ".geometry": 3760,
      ".get": 3761,
      ".getAll": 3762,
      ".getAttribute": 3763,
      ".getC": 3764,
      ".getChild": 3765,
      ".getClass": 3766,
      ".getColumn": 3767,
      ".getConnection": 3768,
      ".getContext": 3769,
      ".getCurrent": 3770,
      ".getData": 3771,
      ".getDate": 3772,
      ".getDefault": 3773,
      ".getElement": 3774,
      ".getElementById": 3775,
      ".getElements": 3776,
      ".getElementsBy": 3777,
      ".getElementsByClassName": 3778,
      ".getElementsByTagName": 3779,
      ".getFullYear": 3780,
      ".getHeight": 3781,
      ".getId": 3782,
      ".getInstance": 3783,
      ".getInt": 3784,
      ".getItem": 3785,
      ".getKey": 3786,
      ".getLogger": 3787,
      ".getMessage": 3788,
      ".getMonth": 3789,
      ".getName": 3790,
      ".getParameter": 3791,
      ".getProperty": 3792,
      ".getRequest": 3793,
      ".getSelected": 3794,
      ".getSession": 3795,
      ".getState": 3796,
      ".getStatus": 3797,
      ".getString": 3798,
      ".getText": 3799,
      ".getTime": 3800,
      ".getType": 3801,
      ".getUser": 3802,
      ".getValue": 3803,
      ".getWidth": 3804,
      ".getX": 3805,
      ".getY": 3806,
      ".gif": 3807,
      ".git": 3808,
      ".github": 3809,
      ".gl": 3810,
      ".global": 3811,
      ".gms": 3812,
      ".gnu": 3813,
      ".go": 3814,
      ".google": 3815,
      ".googleapis": 3816,
      ".gov": 3817,
      ".gr": 3818,
      ".graph": 3819,
      ".graphics": 3820,
      ".green": 3821,
      ".grey": 3822,
      ".grid": 3823,
      ".group": 3824,
      ".groupBox": 3825,
      ".gson": 3826,
      ".gui": 3827,
      ".guild": 3828,
      ".gz": 3829,
      ".h": 3830,
      ".hadoop": 3831,
      ".hand": 3832,
      ".handle": 3833,
      ".handleChange": 3834,
      ".handler": 3835,
      ".has": 3836,
      ".hasNext": 3837,
      ".hasOwnProperty": 3838,
      ".hash": 3839,
      ".hashCode": 3840,
      ".have": 3841,
      ".head": 3842,
      ".header": 3843,
      ".headers": 3844,
      ".health": 3845,
      ".height": 3846,
      ".helper": 3847,
      ".hh": 3848,
      ".hibernate": 3849,
      ".hidden": 3850,
      ".hide": 3851,
      ".high": 3852,
      ".history": 3853,
      ".home": 3854,
      ".host": 3855,
      ".hpp": 3856,
      ".href": 3857,
      ".ht": 3858,
      ".htm": 3859,
      ".html": 3860,
      ".http": 3861,
      ".i": 3862,
      ".ib": 3863,
      ".ic": 3864,
      ".ico": 3865,
      ".icon": 3866,
      ".id": 3867,
      ".identifier": 3868,
      ".identity": 3869,
      ".if": 3870,
      ".iloc": 3871,
      ".im": 3872,
      ".image": 3873,
      ".images": 3874,
      ".img": 3875,
      ".impl": 3876,
      ".import": 3877,
      ".imshow": 3878,
      ".in": 3879,
      ".inc": 3880,
      ".include": 3881,
      ".includes": 3882,
      ".ind": 3883,
      ".index": 3884,
      ".indexOf": 3885,
      ".inf": 3886,
      ".inflate": 3887,
      ".info": 3888,
      ".ini": 3889,
      ".init": 3890,
      ".initial": 3891,
      ".initialize": 3892,
      ".inject": 3893,
      ".inline": 3894,
      ".inner": 3895,
      ".innerHTML": 3896,
      ".innerText": 3897,
      ".input": 3898,
      ".ins": 3899,
      ".insert": 3900,
      ".inst": 3901,
      ".instance": 3902,
      ".int": 3903,
      ".integer": 3904,
      ".intellij": 3905,
      ".inter": 3906,
      ".interfaces": 3907,
      ".internal": 3908,
      ".into": 3909,
      ".inventory": 3910,
      ".invoke": 3911,
      ".io": 3912,
      ".ip": 3913,
      ".is": 3914,
      ".isArray": 3915,
      ".isEmpty": 3916,
      ".isHidden": 3917,
      ".isRequired": 3918,
      ".isValid": 3919,
      ".isfile": 3920,
      ".it": 3921,
      ".item": 3922,
      ".items": 3923,
      ".iter": 3924,
      ".iterator": 3925,
      ".j": 3926,
      ".jackson": 3927,
      ".jar": 3928,
      ".java": 3929,
      ".jdbc": 3930,
      ".jet": 3931,
      ".jetbrains": 3932,
      ".job": 3933,
      ".join": 3934,
      ".jp": 3935,
      ".jpa": 3936,
      ".jpeg": 3937,
      ".jpg": 3938,
      ".js": 3939,
      ".json": 3940,
      ".jsp": 3941,
      ".junit": 3942,
      ".jupiter": 3943,
      ".k": 3944,
      ".keras": 3945,
      ".kernel": 3946,
      ".key": 3947,
      ".keyCode": 3948,
      ".keySet": 3949,
      ".keys": 3950,
      ".kind": 3951,
      ".l": 3952,
      ".label": 3953,
      ".labels": 3954,
      ".lang": 3955,
      ".language": 3956,
      ".last": 3957,
      ".lastName": 3958,
      ".lat": 3959,
      ".latitude": 3960,
      ".launch": 3961,
      ".layer": 3962,
      ".layers": 3963,
      ".layout": 3964,
      ".lbl": 3965,
      ".le": 3966,
      ".left": 3967,
      ".legend": 3968,
      ".len": 3969,
      ".length": 3970,
      ".level": 3971,
      ".lib": 3972,
      ".library": 3973,
      ".lifecycle": 3974,
      ".liferay": 3975,
      ".light": 3976,
      ".limit": 3977,
      ".linalg": 3978,
      ".line": 3979,
      ".lineTo": 3980,
      ".linear": 3981,
      ".link": 3982,
      ".linspace": 3983,
      ".list": 3984,
      ".listdir": 3985,
      ".listen": 3986,
      ".load": 3987,
      ".loading": 3988,
      ".loads": 3989,
      ".loc": 3990,
      ".local": 3991,
      ".location": 3992,
      ".lock": 3993,
      ".log": 3994,
      ".logger": 3995,
      ".logging": 3996,
      ".login": 3997,
      ".long": 3998,
      ".longitude": 3999,
      ".lookup": 4000,
      ".lower": 4001,
      ".lua": 4002,
      ".ly": 4003,
      ".m": 4004,
      ".mail": 4005,
      ".main": 4006,
      ".make": 4007,
      ".makeText": 4008,
      ".makedirs": 4009,
      ".man": 4010,
      ".manager": 4011,
      ".map": 4012,
      ".mapper": 4013,
      ".maps": 4014,
      ".mark": 4015,
      ".mas": 4016,
      ".mask": 4017,
      ".master": 4018,
      ".mat": 4019,
      ".match": 4020,
      ".matches": 4021,
      ".material": 4022,
      ".math": 4023,
      ".matrix": 4024,
      ".max": 4025,
      ".md": 4026,
      ".me": 4027,
      ".mean": 4028,
      ".media": 4029,
      ".member": 4030,
      ".memory": 4031,
      ".menu": 4032,
      ".merge": 4033,
      ".message": 4034,
      ".messages": 4035,
      ".meta": 4036,
      ".metadata": 4037,
      ".method": 4038,
      ".metrics": 4039,
      ".metro": 4040,
      ".microsoft": 4041,
      ".min": 4042,
      ".minecraft": 4043,
      ".mk": 4044,
      ".mkdir": 4045,
      ".mm": 4046,
      ".mobile": 4047,
      ".mock": 4048,
      ".mockito": 4049,
      ".mod": 4050,
      ".modal": 4051,
      ".mode": 4052,
      ".model": 4053,
      ".models": 4054,
      ".module": 4055,
      ".modules": 4056,
      ".month": 4057,
      ".mouse": 4058,
      ".move": 4059,
      ".moveTo": 4060,
      ".mp": 4061,
      ".ms": 4062,
      ".msg": 4063,
      ".my": 4064,
      ".mybatis": 4065,
      ".n": 4066,
      ".name": 4067,
      ".nan": 4068,
      ".native": 4069,
      ".nav": 4070,
      ".navigate": 4071,
      ".navigation": 4072,
      ".navigationController": 4073,
      ".nc": 4074,
      ".nd": 4075,
      ".ndarray": 4076,
      ".ne": 4077,
      ".net": 4078,
      ".netty": 4079,
      ".network": 4080,
      ".new": 4081,
      ".next": 4082,
      ".nextInt": 4083,
      ".nextLine": 4084,
      ".nil": 4085,
      ".nio": 4086,
      ".nl": 4087,
      ".nn": 4088,
      ".no": 4089,
      ".node": 4090,
      ".nodes": 4091,
      ".nombre": 4092,
      ".norm": 4093,
      ".normal": 4094,
      ".not": 4095,
      ".notify": 4096,
      ".now": 4097,
      ".num": 4098,
      ".number": 4099,
      ".o": 4100,
      ".ob": 4101,
      ".obj": 4102,
      ".object": 4103,
      ".objects": 4104,
      ".of": 4105,
      ".off": 4106,
      ".offset": 4107,
      ".ok": 4108,
      ".on": 4109,
      ".onCreate": 4110,
      ".one": 4111,
      ".ones": 4112,
      ".onload": 4113,
      ".only": 4114,
      ".op": 4115,
      ".open": 4116,
      ".openqa": 4117,
      ".opt": 4118,
      ".option": 4119,
      ".options": 4120,
      ".or": 4121,
      ".order": 4122,
      ".org": 4123,
      ".origin": 4124,
      ".original": 4125,
      ".os": 4126,
      ".out": 4127,
      ".output": 4128,
      ".owner": 4129,
      ".p": 4130,
      ".pack": 4131,
      ".page": 4132,
      ".pages": 4133,
      ".panel": 4134,
      ".par": 4135,
      ".param": 4136,
      ".parameters": 4137,
      ".params": 4138,
      ".parent": 4139,
      ".parentNode": 4140,
      ".parse": 4141,
      ".parseDouble": 4142,
      ".parseInt": 4143,
      ".parser": 4144,
      ".part": 4145,
      ".pass": 4146,
      ".password": 4147,
      ".patch": 4148,
      ".path": 4149,
      ".pattern": 4150,
      ".pay": 4151,
      ".payload": 4152,
      ".pb": 4153,
      ".pdf": 4154,
      ".per": 4155,
      ".perform": 4156,
      ".permission": 4157,
      ".persistence": 4158,
      ".person": 4159,
      ".ph": 4160,
      ".phone": 4161,
      ".php": 4162,
      ".pi": 4163,
      ".pictureBox": 4164,
      ".pipe": 4165,
      ".pk": 4166,
      ".pl": 4167,
      ".place": 4168,
      ".placeholder": 4169,
      ".platform": 4170,
      ".play": 4171,
      ".player": 4172,
      ".players": 4173,
      ".plot": 4174,
      ".plugin": 4175,
      ".plugins": 4176,
      ".png": 4177,
      ".po": 4178,
      ".point": 4179,
      ".points": 4180,
      ".pool": 4181,
      ".pop": 4182,
      ".port": 4183,
      ".portal": 4184,
      ".pos": 4185,
      ".position": 4186,
      ".post": 4187,
      ".pow": 4188,
      ".power": 4189,
      ".pr": 4190,
      ".pre": 4191,
      ".predict": 4192,
      ".prefix": 4193,
      ".prepare": 4194,
      ".prepareStatement": 4195,
      ".present": 4196,
      ".prev": 4197,
      ".prevent": 4198,
      ".preventDefault": 4199,
      ".previous": 4200,
      ".price": 4201,
      ".primary": 4202,
      ".print": 4203,
      ".printStackTrace": 4204,
      ".printf": 4205,
      ".println": 4206,
      ".pro": 4207,
      ".process": 4208,
      ".product": 4209,
      ".products": 4210,
      ".profile": 4211,
      ".progress": 4212,
      ".project": 4213,
      ".prop": 4214,
      ".propTypes": 4215,
      ".properties": 4216,
      ".property": 4217,
      ".props": 4218,
      ".prot": 4219,
      ".protocol": 4220,
      ".prototype": 4221,
      ".provider": 4222,
      ".pt": 4223,
      ".ptr": 4224,
      ".public": 4225,
      ".publish": 4226,
      ".push": 4227,
      ".put": 4228,
      ".putExtra": 4229,
      ".putString": 4230,
      ".py": 4231,
      ".pyplot": 4232,
      ".q": 4233,
      ".qu": 4234,
      ".quantity": 4235,
      ".query": 4236,
      ".querySelector": 4237,
      ".querySelectorAll": 4238,
      ".question": 4239,
      ".queue": 4240,
      ".r": 4241,
      ".radioButton": 4242,
      ".radius": 4243,
      ".rand": 4244,
      ".randint": 4245,
      ".random": 4246,
      ".range": 4247,
      ".raw": 4248,
      ".rb": 4249,
      ".rc": 4250,
      ".re": 4251,
      ".read": 4252,
      ".readLine": 4253,
      ".reader": 4254,
      ".readline": 4255,
      ".readlines": 4256,
      ".ready": 4257,
      ".real": 4258,
      ".rec": 4259,
      ".record": 4260,
      ".rect": 4261,
      ".recyclerview": 4262,
      ".red": 4263,
      ".redirect": 4264,
      ".reduce": 4265,
      ".ref": 4266,
      ".reflect": 4267,
      ".refresh": 4268,
      ".reg": 4269,
      ".register": 4270,
      ".reject": 4271,
      ".rel": 4272,
      ".release": 4273,
      ".reload": 4274,
      ".rem": 4275,
      ".remote": 4276,
      ".remove": 4277,
      ".removeClass": 4278,
      ".removeEventListener": 4279,
      ".render": 4280,
      ".replace": 4281,
      ".reply": 4282,
      ".report": 4283,
      ".repository": 4284,
      ".request": 4285,
      ".require": 4286,
      ".required": 4287,
      ".res": 4288,
      ".reset": 4289,
      ".reshape": 4290,
      ".resize": 4291,
      ".resolve": 4292,
      ".resource": 4293,
      ".resources": 4294,
      ".response": 4295,
      ".responseText": 4296,
      ".rest": 4297,
      ".result": 4298,
      ".results": 4299,
      ".return": 4300,
      ".reverse": 4301,
      ".rf": 4302,
      ".right": 4303,
      ".ro": 4304,
      ".role": 4305,
      ".room": 4306,
      ".root": 4307,
      ".rotate": 4308,
      ".rotation": 4309,
      ".round": 4310,
      ".route": 4311,
      ".router": 4312,
      ".routes": 4313,
      ".row": 4314,
      ".rows": 4315,
      ".rs": 4316,
      ".ru": 4317,
      ".run": 4318,
      ".runtime": 4319,
      ".s": 4320,
      ".sample": 4321,
      ".save": 4322,
      ".savefig": 4323,
      ".sc": 4324,
      ".scal": 4325,
      ".scalajs": 4326,
      ".scale": 4327,
      ".scatter": 4328,
      ".scene": 4329,
      ".schedule": 4330,
      ".schema": 4331,
      ".score": 4332,
      ".screen": 4333,
      ".scroll": 4334,
      ".scss": 4335,
      ".sdk": 4336,
      ".se": 4337,
      ".search": 4338,
      ".second": 4339,
      ".section": 4340,
      ".security": 4341,
      ".seed": 4342,
      ".seek": 4343,
      ".select": 4344,
      ".selected": 4345,
      ".selection": 4346,
      ".selenium": 4347,
      ".self": 4348,
      ".send": 4349,
      ".sendMessage": 4350,
      ".sender": 4351,
      ".separator": 4352,
      ".serial": 4353,
      ".serialize": 4354,
      ".server": 4355,
      ".service": 4356,
      ".services": 4357,
      ".servlet": 4358,
      ".session": 4359,
      ".set": 4360,
      ".setAdapter": 4361,
      ".setAttribute": 4362,
      ".setBackground": 4363,
      ".setBounds": 4364,
      ".setColor": 4365,
      ".setData": 4366,
      ".setEnabled": 4367,
      ".setFont": 4368,
      ".setForeground": 4369,
      ".setHorizontal": 4370,
      ".setIcon": 4371,
      ".setId": 4372,
      ".setImage": 4373,
      ".setInt": 4374,
      ".setItem": 4375,
      ".setLayout": 4376,
      ".setName": 4377,
      ".setOn": 4378,
      ".setOnClickListener": 4379,
      ".setProperty": 4380,
      ".setState": 4381,
      ".setString": 4382,
      ".setStyle": 4383,
      ".setText": 4384,
      ".setTitle": 4385,
      ".setValue": 4386,
      ".setVisibility": 4387,
      ".setVisible": 4388,
      ".settings": 4389,
      ".setup": 4390,
      ".sh": 4391,
      ".shadow": 4392,
      ".shape": 4393,
      ".shared": 4394,
      ".shift": 4395,
      ".shop": 4396,
      ".short": 4397,
      ".should": 4398,
      ".show": 4399,
      ".showMessage": 4400,
      ".showMessageDialog": 4401,
      ".sign": 4402,
      ".sim": 4403,
      ".simple": 4404,
      ".sin": 4405,
      ".single": 4406,
      ".site": 4407,
      ".size": 4408,
      ".sk": 4409,
      ".skip": 4410,
      ".sl": 4411,
      ".sleep": 4412,
      ".slf": 4413,
      ".slice": 4414,
      ".sm": 4415,
      ".sn": 4416,
      ".so": 4417,
      ".socket": 4418,
      ".sort": 4419,
      ".source": 4420,
      ".sp": 4421,
      ".space": 4422,
      ".spacing": 4423,
      ".spark": 4424,
      ".spec": 4425,
      ".speed": 4426,
      ".splice": 4427,
      ".split": 4428,
      ".splitContainer": 4429,
      ".spring": 4430,
      ".springframework": 4431,
      ".sprite": 4432,
      ".sql": 4433,
      ".sqrt": 4434,
      ".square": 4435,
      ".src": 4436,
      ".st": 4437,
      ".stack": 4438,
      ".stage": 4439,
      ".standard": 4440,
      ".start": 4441,
      ".startsWith": 4442,
      ".startswith": 4443,
      ".stat": 4444,
      ".state": 4445,
      ".static": 4446,
      ".stats": 4447,
      ".status": 4448,
      ".statusCode": 4449,
      ".std": 4450,
      ".stderr": 4451,
      ".stdout": 4452,
      ".step": 4453,
      ".stereotype": 4454,
      ".stop": 4455,
      ".storage": 4456,
      ".store": 4457,
      ".str": 4458,
      ".stream": 4459,
      ".strftime": 4460,
      ".string": 4461,
      ".stringify": 4462,
      ".strip": 4463,
      ".stroke": 4464,
      ".stub": 4465,
      ".style": 4466,
      ".sub": 4467,
      ".subject": 4468,
      ".submit": 4469,
      ".subscribe": 4470,
      ".substr": 4471,
      ".substring": 4472,
      ".success": 4473,
      ".sum": 4474,
      ".summary": 4475,
      ".sun": 4476,
      ".sup": 4477,
      ".support": 4478,
      ".svg": 4479,
      ".sw": 4480,
      ".swift": 4481,
      ".swing": 4482,
      ".symbol": 4483,
      ".syn": 4484,
      ".sync": 4485,
      ".sys": 4486,
      ".system": 4487,
      ".t": 4488,
      ".tab": 4489,
      ".tabPage": 4490,
      ".table": 4491,
      ".tableLayoutPanel": 4492,
      ".tableView": 4493,
      ".tag": 4494,
      ".tags": 4495,
      ".tail": 4496,
      ".tar": 4497,
      ".target": 4498,
      ".task": 4499,
      ".tasks": 4500,
      ".tb": 4501,
      ".te": 4502,
      ".team": 4503,
      ".tele": 4504,
      ".temp": 4505,
      ".template": 4506,
      ".tencent": 4507,
      ".test": 4508,
      ".text": 4509,
      ".textBox": 4510,
      ".textColor": 4511,
      ".textContent": 4512,
      ".th": 4513,
      ".theme": 4514,
      ".then": 4515,
      ".this": 4516,
      ".tie": 4517,
      ".tile": 4518,
      ".tim": 4519,
      ".time": 4520,
      ".timeout": 4521,
      ".timer": 4522,
      ".times": 4523,
      ".timestamp": 4524,
      ".timestamps": 4525,
      ".title": 4526,
      ".tm": 4527,
      ".to": 4528,
      ".toList": 4529,
      ".toLowerCase": 4530,
      ".toString": 4531,
      ".toUpperCase": 4532,
      ".today": 4533,
      ".toggle": 4534,
      ".token": 4535,
      ".tool": 4536,
      ".toolStrip": 4537,
      ".tools": 4538,
      ".top": 4539,
      ".total": 4540,
      ".tpl": 4541,
      ".tr": 4542,
      ".trace": 4543,
      ".train": 4544,
      ".trans": 4545,
      ".transaction": 4546,
      ".transform": 4547,
      ".translate": 4548,
      ".transpose": 4549,
      ".tree": 4550,
      ".trigger": 4551,
      ".trim": 4552,
      ".ts": 4553,
      ".tv": 4554,
      ".tw": 4555,
      ".twig": 4556,
      ".twimg": 4557,
      ".twitter": 4558,
      ".tx": 4559,
      ".txt": 4560,
      ".type": 4561,
      ".types": 4562,
      ".u": 4563,
      ".ui": 4564,
      ".uid": 4565,
      ".uint": 4566,
      ".uk": 4567,
      ".un": 4568,
      ".undefined": 4569,
      ".uniform": 4570,
      ".unique": 4571,
      ".unit": 4572,
      ".up": 4573,
      ".update": 4574,
      ".upload": 4575,
      ".upper": 4576,
      ".url": 4577,
      ".urls": 4578,
      ".us": 4579,
      ".use": 4580,
      ".user": 4581,
      ".userId": 4582,
      ".username": 4583,
      ".users": 4584,
      ".util": 4585,
      ".utils": 4586,
      ".uuid": 4587,
      ".v": 4588,
      ".val": 4589,
      ".valid": 4590,
      ".validate": 4591,
      ".validation": 4592,
      ".value": 4593,
      ".valueOf": 4594,
      ".values": 4595,
      ".var": 4596,
      ".velocity": 4597,
      ".verify": 4598,
      ".version": 4599,
      ".vertices": 4600,
      ".video": 4601,
      ".view": 4602,
      ".viewDidLoad": 4603,
      ".views": 4604,
      ".vis": 4605,
      ".visibility": 4606,
      ".visible": 4607,
      ".visit": 4608,
      ".vm": 4609,
      ".vo": 4610,
      ".vue": 4611,
      ".w": 4612,
      ".wait": 4613,
      ".warn": 4614,
      ".warning": 4615,
      ".wav": 4616,
      ".we": 4617,
      ".web": 4618,
      ".weight": 4619,
      ".what": 4620,
      ".where": 4621,
      ".white": 4622,
      ".widget": 4623,
      ".widgets": 4624,
      ".width": 4625,
      ".wikipedia": 4626,
      ".window": 4627,
      ".with": 4628,
      ".word": 4629,
      ".wordpress": 4630,
      ".work": 4631,
      ".world": 4632,
      ".write": 4633,
      ".writer": 4634,
      ".ws": 4635,
      ".x": 4636,
      ".xlabel": 4637,
      ".xml": 4638,
      ".xpath": 4639,
      ".xr": 4640,
      ".xrLabel": 4641,
      ".y": 4642,
      ".yaml": 4643,
      ".year": 4644,
      ".ylabel": 4645,
      ".yml": 4646,
      ".youtube": 4647,
      ".z": 4648,
      ".zero": 4649,
      ".zeros": 4650,
      ".zip": 4651,
      ".{": 4652,
      ".âĢĶ": 4653,
      ".âĢĻ": 4654,
      ".âĢĻĊĊ": 4655,
      ".âĢľ": 4656,
      ".âĢĿ": 4657,
      ".âĢĿĊĊ": 4658,
      ".âĢĿĊĊĊĊ": 4659,
      ".Ċ": 4660,
      ".ĊĊ": 4661,
      ".ĊĊĊ": 4662,
      ".ĊĊĊĊ": 4663,
      ".ĊĊĊĊĊĊ": 4664,
      ".ĊĊĊĊĊĊĊĊ": 4665,
      ".ĊĊĊĊĊĊĊĊĊĊ": 4666,
      ".čĊ": 4667,
      ".čĊčĊ": 4668,
      "/": 4669,
      "/\"": 4670,
      "/\"+": 4671,
      "/\",": 4672,
      "/\",Ċ": 4673,
      "/\";Ċ": 4674,
      "/\">": 4675,
      "/\"Ċ": 4676,
      "/#": 4677,
      "/$": 4678,
      "/${": 4679,
      "/%": 4680,
      "/'": 4681,
      "/'+": 4682,
      "/',": 4683,
      "/',Ċ": 4684,
      "/'.$": 4685,
      "/'Ċ": 4686,
      "/(": 4687,
      "/*": 4688,
      "/*!": 4689,
      "/*!Ċ": 4690,
      "/**": 4691,
      "/********************************": 4692,
      "/****************************************************************": 4693,
      "/************************************************************************": 4694,
      "/****************************************************************************": 4695,
      "/*******************************************************************************Ċ": 4696,
      "/******/": 4697,
      "/***/": 4698,
      "/**Ċ": 4699,
      "/**čĊ": 4700,
      "/*----------------------------------------------------------------": 4701,
      "/*.": 4702,
      "/*Ċ": 4703,
      "/*čĊ": 4704,
      "/,": 4705,
      "/-": 4706,
      "/.": 4707,
      "//": 4708,
      "//!": 4709,
      "//#": 4710,
      "//$": 4711,
      "//*": 4712,
      "//*[@": 4713,
      "//------------------------------------------------": 4714,
      "//----------------------------------------------------------------": 4715,
      "//----------------------------------------------------------------------------": 4716,
      "///": 4717,
      "////": 4718,
      "////////": 4719,
      "////////////": 4720,
      "////////////////": 4721,
      "////////////////////////////////": 4722,
      "////////////////////////////////////////////////": 4723,
      "////////////////////////////////////////////////////////////////": 4724,
      "////////////////////////////////////////////////////////////////////////": 4725,
      "////////////////////////////////////////////////////////////////////////////": 4726,
      "////////////////////////////////////////////////////////////////////////////////": 4727,
      "///Ċ": 4728,
      "//================================================================": 4729,
      "//@": 4730,
      "//}Ċ": 4731,
      "//Ċ": 4732,
      "//ĊĊ": 4733,
      "//čĊ": 4734,
      "/:": 4735,
      "/<": 4736,
      "/>": 4737,
      "/>.Ċ": 4738,
      "/><": 4739,
      "/>Ċ": 4740,
      "/?": 4741,
      "/@": 4742,
      "/A": 4743,
      "/B": 4744,
      "/C": 4745,
      "/D": 4746,
      "/E": 4747,
      "/F": 4748,
      "/Foundation": 4749,
      "/G": 4750,
      "/Getty": 4751,
      "/H": 4752,
      "/I": 4753,
      "/J": 4754,
      "/K": 4755,
      "/L": 4756,
      "/LICENSE": 4757,
      "/M": 4758,
      "/MM": 4759,
      "/N": 4760,
      "/O": 4761,
      "/P": 4762,
      "/R": 4763,
      "/S": 4764,
      "/String": 4765,
      "/T": 4766,
      "/UIKit": 4767,
      "/User": 4768,
      "/V": 4769,
      "/W": 4770,
      "/X": 4771,
      "/Y": 4772,
      "/\\": 4773,
      "/_": 4774,
      "/a": 4775,
      "/actions": 4776,
      "/add": 4777,
      "/admin": 4778,
      "/ajax": 4779,
      "/all": 4780,
      "/ap": 4781,
      "/apache": 4782,
      "/api": 4783,
      "/app": 4784,
      "/application": 4785,
      "/article": 4786,
      "/assets": 4787,
      "/auth": 4788,
      "/b": 4789,
      "/base": 4790,
      "/bash": 4791,
      "/bin": 4792,
      "/blob": 4793,
      "/blog": 4794,
      "/bootstrap": 4795,
      "/build": 4796,
      "/c": 4797,
      "/ch": 4798,
      "/class": 4799,
      "/client": 4800,
      "/com": 4801,
      "/common": 4802,
      "/components": 4803,
      "/con": 4804,
      "/config": 4805,
      "/content": 4806,
      "/core": 4807,
      "/create": 4808,
      "/css": 4809,
      "/custom": 4810,
      "/d": 4811,
      "/dat": 4812,
      "/data": 4813,
      "/db": 4814,
      "/de": 4815,
      "/default": 4816,
      "/delete": 4817,
      "/dev": 4818,
      "/dist": 4819,
      "/div": 4820,
      "/doc": 4821,
      "/docs": 4822,
      "/download": 4823,
      "/e": 4824,
      "/edit": 4825,
      "/en": 4826,
      "/env": 4827,
      "/es": 4828,
      "/ex": 4829,
      "/f": 4830,
      "/file": 4831,
      "/files": 4832,
      "/font": 4833,
      "/footer": 4834,
      "/form": 4835,
      "/forms": 4836,
      "/g": 4837,
      "/get": 4838,
      "/global": 4839,
      "/go": 4840,
      "/gpl": 4841,
      "/h": 4842,
      "/header": 4843,
      "/her": 4844,
      "/home": 4845,
      "/html": 4846,
      "/http": 4847,
      "/i": 4848,
      "/icon": 4849,
      "/icons": 4850,
      "/id": 4851,
      "/image": 4852,
      "/images": 4853,
      "/img": 4854,
      "/in": 4855,
      "/include": 4856,
      "/index": 4857,
      "/int": 4858,
      "/internal": 4859,
      "/issues": 4860,
      "/j": 4861,
      "/javascript": 4862,
      "/jquery": 4863,
      "/js": 4864,
      "/json": 4865,
      "/k": 4866,
      "/l": 4867,
      "/lang": 4868,
      "/latest": 4869,
      "/lib": 4870,
      "/libs": 4871,
      "/lic": 4872,
      "/licenses": 4873,
      "/list": 4874,
      "/local": 4875,
      "/log": 4876,
      "/login": 4877,
      "/logo": 4878,
      "/m": 4879,
      "/main": 4880,
      "/maps": 4881,
      "/master": 4882,
      "/material": 4883,
      "/media": 4884,
      "/mod": 4885,
      "/model": 4886,
      "/models": 4887,
      "/modules": 4888,
      "/mol": 4889,
      "/my": 4890,
      "/n": 4891,
      "/net": 4892,
      "/new": 4893,
      "/news": 4894,
      "/no": 4895,
      "/node": 4896,
      "/null": 4897,
      "/o": 4898,
      "/open": 4899,
      "/or": 4900,
      "/p": 4901,
      "/page": 4902,
      "/pages": 4903,
      "/pkg": 4904,
      "/pl": 4905,
      "/plain": 4906,
      "/platform": 4907,
      "/plugins": 4908,
      "/png": 4909,
      "/post": 4910,
      "/pre": 4911,
      "/pro": 4912,
      "/product": 4913,
      "/products": 4914,
      "/profile": 4915,
      "/projects": 4916,
      "/public": 4917,
      "/python": 4918,
      "/q": 4919,
      "/r": 4920,
      "/re": 4921,
      "/react": 4922,
      "/register": 4923,
      "/res": 4924,
      "/resources": 4925,
      "/router": 4926,
      "/runtime": 4927,
      "/s": 4928,
      "/sc": 4929,
      "/scripts": 4930,
      "/search": 4931,
      "/select": 4932,
      "/server": 4933,
      "/service": 4934,
      "/services": 4935,
      "/settings": 4936,
      "/sh": 4937,
      "/share": 4938,
      "/shared": 4939,
      "/show": 4940,
      "/sign": 4941,
      "/sp": 4942,
      "/src": 4943,
      "/st": 4944,
      "/static": 4945,
      "/status": 4946,
      "/std": 4947,
      "/stdc": 4948,
      "/store": 4949,
      "/style": 4950,
      "/styles": 4951,
      "/sub": 4952,
      "/svg": 4953,
      "/system": 4954,
      "/t": 4955,
      "/template": 4956,
      "/templates": 4957,
      "/test": 4958,
      "/testing": 4959,
      "/text": 4960,
      "/th": 4961,
      "/themes": 4962,
      "/time": 4963,
      "/to": 4964,
      "/top": 4965,
      "/tr": 4966,
      "/types": 4967,
      "/u": 4968,
      "/ui": 4969,
      "/un": 4970,
      "/update": 4971,
      "/upload": 4972,
      "/uploads": 4973,
      "/user": 4974,
      "/users": 4975,
      "/util": 4976,
      "/utils": 4977,
      "/v": 4978,
      "/vendor": 4979,
      "/view": 4980,
      "/views": 4981,
      "/w": 4982,
      "/watch": 4983,
      "/web": 4984,
      "/widget": 4985,
      "/wiki": 4986,
      "/work": 4987,
      "/wp": 4988,
      "/www": 4989,
      "/x": 4990,
      "/xhtml": 4991,
      "/xml": 4992,
      "/y": 4993,
      "/z": 4994,
      "/{": 4995,
      "/Ċ": 4996,
      "/ĊĊ": 4997,
      "/čĊ": 4998,
      "0": 4999,
      "1": 5000,
      "2": 5001,
      "3": 5002,
      "4": 5003,
      "5": 5004,
      "6": 5005,
      "7": 5006,
      "8": 5007,
      "9": 5008,
      ":": 5009,
      ":\"": 5010,
      ":\");Ċ": 5011,
      ":\")Ċ": 5012,
      ":\"+": 5013,
      ":\",": 5014,
      ":\";Ċ": 5015,
      ":\"Ċ": 5016,
      ":#": 5017,
      ":$": 5018,
      ":${": 5019,
      ":%": 5020,
      ":&": 5021,
      ":'": 5022,
      ":',": 5023,
      ":(": 5024,
      ":)": 5025,
      ":+": 5026,
      ":-": 5027,
      ":.": 5028,
      ":/": 5029,
      "://": 5030,
      "::": 5031,
      "::$": 5032,
      "::*": 5033,
      "::::": 5034,
      "::::::": 5035,
      "::<": 5036,
      "::_": 5037,
      "::_('": 5038,
      "::__": 5039,
      "::{": 5040,
      "::~": 5041,
      ":<": 5042,
      ":</": 5043,
      ":=": 5044,
      ":@": 5045,
      ":@\"": 5046,
      ":@\"%": 5047,
      ":CGRect": 5048,
      ":CGRectMake": 5049,
      ":Get": 5050,
      ":N": 5051,
      ":NO": 5052,
      ":NS": 5053,
      ":Number": 5054,
      ":Set": 5055,
      ":String": 5056,
      ":UI": 5057,
      ":UIControl": 5058,
      ":UIControlState": 5059,
      ":UIControlStateNormal": 5060,
      ":YES": 5061,
      ":[": 5062,
      ":\\": 5063,
      ":\\/\\/": 5064,
      ":\\\\": 5065,
      ":]": 5066,
      ":]Ċ": 5067,
      ":^": 5068,
      ":^(": 5069,
      ":_": 5070,
      ":`": 5071,
      ":add": 5072,
      ":any": 5073,
      ":center": 5074,
      ":def": 5075,
      ":end": 5076,
      ":event": 5077,
      ":false": 5078,
      ":flutter": 5079,
      ":function": 5080,
      ":get": 5081,
      ":hover": 5082,
      ":i": 5083,
      ":id": 5084,
      ":image": 5085,
      ":int": 5086,
      ":left": 5087,
      ":length": 5088,
      ":m": 5089,
      ":mm": 5090,
      ":n": 5091,
      ":nil": 5092,
      ":none": 5093,
      ":nth": 5094,
      ":number": 5095,
      ":s": 5096,
      ":self": 5097,
      ":set": 5098,
      ":ss": 5099,
      ":string": 5100,
      ":text": 5101,
      ":this": 5102,
      ":true": 5103,
      ":url": 5104,
      ":void": 5105,
      ":x": 5106,
      ":{": 5107,
      ":{Ċ": 5108,
      ":Ċ": 5109,
      ":ĊĊ": 5110,
      ":ĊĊĊ": 5111,
      ":ĊĊĊĊ": 5112,
      ":čĊ": 5113,
      ":čĊčĊ": 5114,
      ";": 5115,
      ";\"": 5116,
      ";\");Ċ": 5117,
      ";\",": 5118,
      ";\";Ċ": 5119,
      ";\">": 5120,
      ";\"><": 5121,
      ";\"></": 5122,
      ";\">Ċ": 5123,
      ";$": 5124,
      ";%": 5125,
      ";&": 5126,
      ";'": 5127,
      ";)": 5128,
      ";++": 5129,
      ";/": 5130,
      ";//": 5131,
      ";;": 5132,
      ";;;": 5133,
      ";;;;": 5134,
      ";;Ċ": 5135,
      ";<": 5136,
      ";</": 5137,
      ";?>": 5138,
      ";?>Ċ": 5139,
      ";\\": 5140,
      ";amp": 5141,
      ";border": 5142,
      ";color": 5143,
      ";font": 5144,
      ";i": 5145,
      ";j": 5146,
      ";k": 5147,
      ";margin": 5148,
      ";padding": 5149,
      ";s": 5150,
      ";width": 5151,
      ";}": 5152,
      ";}Ċ": 5153,
      ";}ĊĊ": 5154,
      ";}čĊ": 5155,
      ";Ċ": 5156,
      ";ĊĊ": 5157,
      ";ĊĊĊ": 5158,
      ";ĊĊĊĊ": 5159,
      ";čĊ": 5160,
      ";čĊčĊ": 5161,
      ";čĊčĊčĊ": 5162,
      "<": 5163,
      "<!": 5164,
      "<!--": 5165,
      "<$": 5166,
      "<'": 5167,
      "<(": 5168,
      "</": 5169,
      "<<": 5170,
      "<<\"": 5171,
      "<<\"\\": 5172,
      "<<(": 5173,
      "<<<": 5174,
      "<<<<": 5175,
      "<=": 5176,
      "<>": 5177,
      "<>(": 5178,
      "<>();Ċ": 5179,
      "<>();ĊĊ": 5180,
      "<?": 5181,
      "<?=": 5182,
      "<?=$": 5183,
      "<?>": 5184,
      "<A": 5185,
      "<AM": 5186,
      "<B": 5187,
      "<C": 5188,
      "<D": 5189,
      "<E": 5190,
      "<F": 5191,
      "<I": 5192,
      "<IActionResult": 5193,
      "<Int": 5194,
      "<Integer": 5195,
      "<Item": 5196,
      "<K": 5197,
      "<LM": 5198,
      "<List": 5199,
      "<Long": 5200,
      "<M": 5201,
      "<Map": 5202,
      "<N": 5203,
      "<Node": 5204,
      "<Object": 5205,
      "<P": 5206,
      "<Point": 5207,
      "<Product": 5208,
      "<Q": 5209,
      "<R": 5210,
      "<S": 5211,
      "<String": 5212,
      "<System": 5213,
      "<T": 5214,
      "<Text": 5215,
      "<Type": 5216,
      "<U": 5217,
      "<User": 5218,
      "<V": 5219,
      "<_": 5220,
      "<a": 5221,
      "<any": 5222,
      "<b": 5223,
      "<body": 5224,
      "<bool": 5225,
      "<br": 5226,
      "<button": 5227,
      "<byte": 5228,
      "<char": 5229,
      "<class": 5230,
      "<const": 5231,
      "<context": 5232,
      "<div": 5233,
      "<double": 5234,
      "<float": 5235,
      "<form": 5236,
      "<h": 5237,
      "<head": 5238,
      "<html": 5239,
      "<i": 5240,
      "<img": 5241,
      "<input": 5242,
      "<int": 5243,
      "<iostream": 5244,
      "<label": 5245,
      "<lemma": 5246,
      "<li": 5247,
      "<link": 5248,
      "<long": 5249,
      "<m": 5250,
      "<meta": 5251,
      "<n": 5252,
      "<object": 5253,
      "<option": 5254,
      "<p": 5255,
      "<pre": 5256,
      "<quote": 5257,
      "<script": 5258,
      "<section": 5259,
      "<select": 5260,
      "<size": 5261,
      "<span": 5262,
      "<src": 5263,
      "<std": 5264,
      "<stdio": 5265,
      "<string": 5266,
      "<style": 5267,
      "<table": 5268,
      "<tag": 5269,
      "<td": 5270,
      "<th": 5271,
      "<title": 5272,
      "<tr": 5273,
      "<typename": 5274,
      "<u": 5275,
      "<uint": 5276,
      "<ul": 5277,
      "<unsigned": 5278,
      "<v": 5279,
      "<vector": 5280,
      "<void": 5281,
      "<w": 5282,
      "<{": 5283,
      "<Ċ": 5284,
      "=": 5285,
      "=\"": 5286,
      "=\"\"": 5287,
      "=\"\";Ċ": 5288,
      "=\"\">": 5289,
      "=\"\"></": 5290,
      "=\"\">Ċ": 5291,
      "=\"\"Ċ": 5292,
      "=\"#": 5293,
      "=\"#\"": 5294,
      "=\"#\">": 5295,
      "=\"#\"><": 5296,
      "=\"#\">Ċ": 5297,
      "=\"$": 5298,
      "=\"${": 5299,
      "=\"%": 5300,
      "=\"'": 5301,
      "=\"'+": 5302,
      "=\"'.": 5303,
      "=\"'.$": 5304,
      "=\"+": 5305,
      "=\",": 5306,
      "=\"-": 5307,
      "=\".": 5308,
      "=\".$": 5309,
      "=\"../": 5310,
      "=\"../../": 5311,
      "=\"./": 5312,
      "=\"/": 5313,
      "=\"<": 5314,
      "=\"<?": 5315,
      "=\"<?=": 5316,
      "=\"<?=$": 5317,
      "=\"_": 5318,
      "=\"{": 5319,
      "=\"{{": 5320,
      "=\"{{$": 5321,
      "=$": 5322,
      "=$(": 5323,
      "=$_": 5324,
      "=${": 5325,
      "=%": 5326,
      "=&": 5327,
      "='": 5328,
      "='\"": 5329,
      "='\"+": 5330,
      "='\".$": 5331,
      "='#": 5332,
      "='$": 5333,
      "='+": 5334,
      "=',": 5335,
      "='.$": 5336,
      "='/": 5337,
      "='<": 5338,
      "=(": 5339,
      "=-": 5340,
      "=-=-": 5341,
      "=/": 5342,
      "=:": 5343,
      "=<": 5344,
      "=<?": 5345,
      "==": 5346,
      "==\"": 5347,
      "=='": 5348,
      "==(": 5349,
      "===": 5350,
      "====": 5351,
      "========": 5352,
      "===========": 5353,
      "============": 5354,
      "=============": 5355,
      "==============": 5356,
      "================": 5357,
      "================================": 5358,
      "================================================": 5359,
      "================================================================": 5360,
      "===Ċ": 5361,
      "==Ċ": 5362,
      "=>": 5363,
      "=>$": 5364,
      "=>'": 5365,
      "=>{Ċ": 5366,
      "=?": 5367,
      "=@": 5368,
      "=False": 5369,
      "=NULL": 5370,
      "=None": 5371,
      "=True": 5372,
      "=UTF": 5373,
      "=[": 5374,
      "=[\"": 5375,
      "=['": 5376,
      "=[]": 5377,
      "=[];Ċ": 5378,
      "=[]Ċ": 5379,
      "=[Ċ": 5380,
      "=\\": 5381,
      "=\\\"": 5382,
      "=_": 5383,
      "=`": 5384,
      "=a": 5385,
      "=args": 5386,
      "=array": 5387,
      "=b": 5388,
      "=c": 5389,
      "=d": 5390,
      "=data": 5391,
      "=device": 5392,
      "=dict": 5393,
      "=document": 5394,
      "=edge": 5395,
      "=f": 5396,
      "=false": 5397,
      "=float": 5398,
      "=function": 5399,
      "=g": 5400,
      "=get": 5401,
      "=head": 5402,
      "=http": 5403,
      "=i": 5404,
      "=input": 5405,
      "=int": 5406,
      "=item": 5407,
      "=json": 5408,
      "=lambda": 5409,
      "=m": 5410,
      "=models": 5411,
      "=mysql": 5412,
      "=mysqli": 5413,
      "=n": 5414,
      "=name": 5415,
      "=new": 5416,
      "=no": 5417,
      "=np": 5418,
      "=null": 5419,
      "=p": 5420,
      "=r": 5421,
      "=request": 5422,
      "=s": 5423,
      "=self": 5424,
      "=str": 5425,
      "=t": 5426,
      "=tf": 5427,
      "=this": 5428,
      "=true": 5429,
      "=u": 5430,
      "=user": 5431,
      "=utf": 5432,
      "=v": 5433,
      "=x": 5434,
      "=y": 5435,
      "={": 5436,
      "={\"": 5437,
      "={'": 5438,
      "={(": 5439,
      "={()": 5440,
      "={<": 5441,
      "={[": 5442,
      "={`": 5443,
      "={`${": 5444,
      "={{": 5445,
      "={{Ċ": 5446,
      "={Ċ": 5447,
      "=Ċ": 5448,
      ">": 5449,
      ">\"": 5450,
      ">\");Ċ": 5451,
      ">\",": 5452,
      ">\",Ċ": 5453,
      ">\".$": 5454,
      ">\";": 5455,
      ">\";Ċ": 5456,
      ">\";ĊĊ": 5457,
      ">\";čĊ": 5458,
      ">\"Ċ": 5459,
      ">$": 5460,
      ">${": 5461,
      ">%": 5462,
      ">&": 5463,
      ">'": 5464,
      ">');Ċ": 5465,
      ">')Ċ": 5466,
      ">',": 5467,
      ">',Ċ": 5468,
      ">'.$": 5469,
      ">';": 5470,
      ">';Ċ": 5471,
      ">';ĊĊ": 5472,
      ">';čĊ": 5473,
      ">'Ċ": 5474,
      ">(": 5475,
      ">(\"": 5476,
      ">()": 5477,
      ">());Ċ": 5478,
      ">(),": 5479,
      ">().": 5480,
      ">();Ċ": 5481,
      ">();ĊĊ": 5482,
      ">();čĊ": 5483,
      ">()Ċ": 5484,
      ">(Ċ": 5485,
      ">)": 5486,
      ">):": 5487,
      ">)Ċ": 5488,
      ">*": 5489,
      ">,": 5490,
      ">,Ċ": 5491,
      ">-": 5492,
      ">-->Ċ": 5493,
      ">.": 5494,
      ">.</": 5495,
      ">.Ċ": 5496,
      ">/": 5497,
      ">:": 5498,
      ">::": 5499,
      ">;Ċ": 5500,
      ">;ĊĊ": 5501,
      "><": 5502,
      "><!--": 5503,
      "></": 5504,
      "><?": 5505,
      "><?=": 5506,
      ">=": 5507,
      ">>": 5508,
      ">>(": 5509,
      ">>();Ċ": 5510,
      ">>>": 5511,
      ">>>>": 5512,
      ">>Ċ": 5513,
      ">A": 5514,
      ">B": 5515,
      ">C": 5516,
      ">D": 5517,
      ">M": 5518,
      ">Main": 5519,
      ">N": 5520,
      ">P": 5521,
      ">S": 5522,
      ">T": 5523,
      ">The": 5524,
      ">[": 5525,
      ">[Ċ": 5526,
      ">\\": 5527,
      ">\\<": 5528,
      ">\\<^": 5529,
      ">equals": 5530,
      ">false": 5531,
      ">manual": 5532,
      ">true": 5533,
      ">w": 5534,
      ">x": 5535,
      ">{": 5536,
      ">{{": 5537,
      ">{{$": 5538,
      ">}Ċ": 5539,
      ">Ċ": 5540,
      ">ĊĊ": 5541,
      ">ĊĊĊ": 5542,
      ">ĊĊĊĊ": 5543,
      ">čĊ": 5544,
      ">čĊčĊ": 5545,
      ">ččĊ": 5546,
      "?": 5547,
      "?!": 5548,
      "?\"": 5549,
      "?\",": 5550,
      "?\",Ċ": 5551,
      "?\"ĊĊ": 5552,
      "?'": 5553,
      "?(": 5554,
      "?)": 5555,
      "?,": 5556,
      "?,?,": 5557,
      "?,Ċ": 5558,
      "?.": 5559,
      "?:": 5560,
      "?;Ċ": 5561,
      "?</": 5562,
      "?>": 5563,
      "?>\"": 5564,
      "?></": 5565,
      "?>Ċ": 5566,
      "?>ĊĊ": 5567,
      "?>čĊ": 5568,
      "??": 5569,
      "???": 5570,
      "????": 5571,
      "?\\": 5572,
      "?family": 5573,
      "?id": 5574,
      "?v": 5575,
      "?âĢĿ": 5576,
      "?âĢĿĊĊ": 5577,
      "?Ċ": 5578,
      "?ĊĊ": 5579,
      "?ĊĊĊ": 5580,
      "?ĊĊĊĊ": 5581,
      "@": 5582,
      "@\"": 5583,
      "@\",": 5584,
      "@@": 5585,
      "@Autowired": 5586,
      "@Column": 5587,
      "@Component": 5588,
      "@Entity": 5589,
      "@Inject": 5590,
      "@Injectable": 5591,
      "@NgModule": 5592,
      "@Override": 5593,
      "@RequestMapping": 5594,
      "@Service": 5595,
      "@SuppressWarnings": 5596,
      "@Test": 5597,
      "@app": 5598,
      "@author": 5599,
      "@end": 5600,
      "@endsection": 5601,
      "@example": 5602,
      "@extends": 5603,
      "@g": 5604,
      "@gmail": 5605,
      "@implementation": 5606,
      "@interface": 5607,
      "@param": 5608,
      "@property": 5609,
      "@pytest": 5610,
      "@section": 5611,
      "@synthesize": 5612,
      "@ĊĊ": 5613,
      "A": 5614,
      "AA": 5615,
      "AAAA": 5616,
      "AB": 5617,
      "ABC": 5618,
      "ABEL": 5619,
      "ABILITY": 5620,
      "ABLE": 5621,
      "AC": 5622,
      "ACC": 5623,
      "ACE": 5624,
      "ACH": 5625,
      "ACHE": 5626,
      "ACK": 5627,
      "ACT": 5628,
      "ACTER": 5629,
      "ACTIVE": 5630,
      "AD": 5631,
      "ADA": 5632,
      "ADATA": 5633,
      "ADC": 5634,
      "ADD": 5635,
      "ADDR": 5636,
      "ADE": 5637,
      "ADER": 5638,
      "ADI": 5639,
      "ADING": 5640,
      "ADMIN": 5641,
      "ADO": 5642,
      "AE": 5643,
      "AF": 5644,
      "AFE": 5645,
      "AG": 5646,
      "AGE": 5647,
      "AGER": 5648,
      "AGES": 5649,
      "AGIC": 5650,
      "AH": 5651,
      "AI": 5652,
      "AIL": 5653,
      "AILABLE": 5654,
      "AIM": 5655,
      "AIN": 5656,
      "AINER": 5657,
      "AIT": 5658,
      "AJ": 5659,
      "AK": 5660,
      "AKE": 5661,
      "AL": 5662,
      "ALE": 5663,
      "ALK": 5664,
      "ALL": 5665,
      "ALLY": 5666,
      "ALSE": 5667,
      "ALT": 5668,
      "AM": 5669,
      "AMA": 5670,
      "AME": 5671,
      "AMES": 5672,
      "AML": 5673,
      "AMP": 5674,
      "AMPLE": 5675,
      "AN": 5676,
      "ANA": 5677,
      "ANC": 5678,
      "ANCE": 5679,
      "ANCEL": 5680,
      "AND": 5681,
      "ANDARD": 5682,
      "ANDLE": 5683,
      "ANDOM": 5684,
      "ANE": 5685,
      "ANEL": 5686,
      "ANG": 5687,
      "ANGE": 5688,
      "ANGED": 5689,
      "ANGLE": 5690,
      "ANGUAGE": 5691,
      "ANK": 5692,
      "ANN": 5693,
      "ANNEL": 5694,
      "ANS": 5695,
      "ANT": 5696,
      "ANTS": 5697,
      "ANY": 5698,
      "AO": 5699,
      "AP": 5700,
      "APH": 5701,
      "API": 5702,
      "APP": 5703,
      "APTER": 5704,
      "AR": 5705,
      "ARAM": 5706,
      "ARCH": 5707,
      "ARCHAR": 5708,
      "ARD": 5709,
      "ARE": 5710,
      "ARED": 5711,
      "ARENT": 5712,
      "ARG": 5713,
      "ARGE": 5714,
      "ARGET": 5715,
      "ARI": 5716,
      "ARIABLE": 5717,
      "ARIO": 5718,
      "ARK": 5719,
      "ARM": 5720,
      "ARN": 5721,
      "ARNING": 5722,
      "ARR": 5723,
      "ARRANT": 5724,
      "ARRAY": 5725,
      "ARS": 5726,
      "ART": 5727,
      "ARY": 5728,
      "AS": 5729,
      "ASC": 5730,
      "ASCADE": 5731,
      "ASE": 5732,
      "ASH": 5733,
      "ASK": 5734,
      "ASON": 5735,
      "ASS": 5736,
      "ASSERT": 5737,
      "ASSWORD": 5738,
      "AST": 5739,
      "ASTER": 5740,
      "AT": 5741,
      "ATA": 5742,
      "ATAB": 5743,
      "ATABASE": 5744,
      "ATAL": 5745,
      "ATCH": 5746,
      "ATE": 5747,
      "ATED": 5748,
      "ATEG": 5749,
      "ATEGORY": 5750,
      "ATER": 5751,
      "ATES": 5752,
      "ATFORM": 5753,
      "ATH": 5754,
      "ATING": 5755,
      "ATION": 5756,
      "ATIONAL": 5757,
      "ATIONS": 5758,
      "ATIVE": 5759,
      "ATOR": 5760,
      "ATRIX": 5761,
      "ATT": 5762,
      "ATTERN": 5763,
      "ATTR": 5764,
      "ATURE": 5765,
      "ATUS": 5766,
      "AU": 5767,
      "AUTH": 5768,
      "AV": 5769,
      "AVA": 5770,
      "AVE": 5771,
      "AW": 5772,
      "AWS": 5773,
      "AX": 5774,
      "AY": 5775,
      "AYER": 5776,
      "AYOUT": 5777,
      "AYS": 5778,
      "AZ": 5779,
      "Ab": 5780,
      "Ability": 5781,
      "About": 5782,
      "Abs": 5783,
      "Absolute": 5784,
      "AbsolutePath": 5785,
      "Abstract": 5786,
      "Ac": 5787,
      "Acc": 5788,
      "Accept": 5789,
      "Access": 5790,
      "AccessException": 5791,
      "AccessToken": 5792,
      "Accessor": 5793,
      "According": 5794,
      "Account": 5795,
      "Act": 5796,
      "Action": 5797,
      "ActionBar": 5798,
      "ActionPerformed": 5799,
      "ActionResult": 5800,
      "Actions": 5801,
      "Activ": 5802,
      "Activate": 5803,
      "Active": 5804,
      "Activity": 5805,
      "Actor": 5806,
      "Actual": 5807,
      "Ad": 5808,
      "Adam": 5809,
      "Adapter": 5810,
      "Add": 5811,
      "Added": 5812,
      "Adding": 5813,
      "Additional": 5814,
      "Addr": 5815,
      "Address": 5816,
      "Adjust": 5817,
      "Admin": 5818,
      "Adv": 5819,
      "Advanced": 5820,
      "Advertis": 5821,
      "Advertisement": 5822,
      "Advertisements": 5823,
      "Aff": 5824,
      "After": 5825,
      "Ag": 5826,
      "Again": 5827,
      "Age": 5828,
      "Agent": 5829,
      "Ah": 5830,
      "Air": 5831,
      "Al": 5832,
      "Album": 5833,
      "Alert": 5834,
      "Alex": 5835,
      "Algorithm": 5836,
      "Ali": 5837,
      "Alias": 5838,
      "Align": 5839,
      "Alignment": 5840,
      "Alive": 5841,
      "All": 5842,
      "Alloc": 5843,
      "Allow": 5844,
      "Allowed": 5845,
      "Almost": 5846,
      "Alpha": 5847,
      "Already": 5848,
      "Also": 5849,
      "Alt": 5850,
      "Altern": 5851,
      "Although": 5852,
      "Always": 5853,
      "Am": 5854,
      "Amazon": 5855,
      "Americ": 5856,
      "America": 5857,
      "American": 5858,
      "Among": 5859,
      "Amount": 5860,
      "An": 5861,
      "Analysis": 5862,
      "Anchor": 5863,
      "And": 5864,
      "AndView": 5865,
      "Android": 5866,
      "Ang": 5867,
      "Angle": 5868,
      "Anim": 5869,
      "Animated": 5870,
      "Animation": 5871,
      "Animator": 5872,
      "Ann": 5873,
      "Annotation": 5874,
      "Annotations": 5875,
      "Anonymous": 5876,
      "Another": 5877,
      "Answer": 5878,
      "Ant": 5879,
      "Anti": 5880,
      "Any": 5881,
      "Ap": 5882,
      "Api": 5883,
      "App": 5884,
      "Appear": 5885,
      "Appearance": 5886,
      "Append": 5887,
      "Apple": 5888,
      "Application": 5889,
      "ApplicationContext": 5890,
      "Apply": 5891,
      "Appro": 5892,
      "Apr": 5893,
      "April": 5894,
      "Ar": 5895,
      "Arc": 5896,
      "Arch": 5897,
      "Are": 5898,
      "Area": 5899,
      "Arg": 5900,
      "Argb": 5901,
      "Args": 5902,
      "ArgsConstructor": 5903,
      "Argument": 5904,
      "ArgumentException": 5905,
      "Arguments": 5906,
      "Arial": 5907,
      "Arm": 5908,
      "Arr": 5909,
      "Array": 5910,
      "ArrayList": 5911,
      "Arrays": 5912,
      "Arrow": 5913,
      "Art": 5914,
      "Article": 5915,
      "As": 5916,
      "AsString": 5917,
      "Asia": 5918,
      "Ask": 5919,
      "Aspect": 5920,
      "Ass": 5921,
      "Assembly": 5922,
      "Assert": 5923,
      "Asset": 5924,
      "Assets": 5925,
      "Assign": 5926,
      "Associ": 5927,
      "Async": 5928,
      "At": 5929,
      "AtIndex": 5930,
      "Atom": 5931,
      "Att": 5932,
      "Attach": 5933,
      "Attachment": 5934,
      "Attack": 5935,
      "Attr": 5936,
      "Attrib": 5937,
      "Attribute": 5938,
      "Attributes": 5939,
      "Audio": 5940,
      "Aug": 5941,
      "August": 5942,
      "Aut": 5943,
      "Auth": 5944,
      "Authenticated": 5945,
      "Authentication": 5946,
      "Author": 5947,
      "Authorization": 5948,
      "Authorize": 5949,
      "Auto": 5950,
      "Autowired": 5951,
      "Av": 5952,
      "Available": 5953,
      "Avatar": 5954,
      "Average": 5955,
      "Avg": 5956,
      "Aw": 5957,
      "Await": 5958,
      "Awesome": 5959,
      "Ax": 5960,
      "Axis": 5961,
      "AxisAlignment": 5962,
      "Az": 5963,
      "B": 5964,
      "BA": 5965,
      "BACK": 5966,
      "BAR": 5967,
      "BASE": 5968,
      "BB": 5969,
      "BC": 5970,
      "BD": 5971,
      "BE": 5972,
      "BEGIN": 5973,
      "BER": 5974,
      "BF": 5975,
      "BG": 5976,
      "BI": 5977,
      "BIT": 5978,
      "BJ": 5979,
      "BJECT": 5980,
      "BL": 5981,
      "BLE": 5982,
      "BLOCK": 5983,
      "BM": 5984,
      "BN": 5985,
      "BO": 5986,
      "BOARD": 5987,
      "BOOK": 5988,
      "BOOL": 5989,
      "BOOST": 5990,
      "BOSE": 5991,
      "BOX": 5992,
      "BP": 5993,
      "BR": 5994,
      "BS": 5995,
      "BSD": 5996,
      "BT": 5997,
      "BU": 5998,
      "BUG": 5999,
      "BUTTON": 6000,
      "BY": 6001,
      "BYTE": 6002,
      "Back": 6003,
      "BackColor": 6004,
      "Backend": 6005,
      "Background": 6006,
      "BackgroundColor": 6007,
      "Bad": 6008,
      "Bag": 6009,
      "BagConstraints": 6010,
      "Bal": 6011,
      "Balance": 6012,
      "Ball": 6013,
      "Band": 6014,
      "Bank": 6015,
      "Bar": 6016,
      "BarButtonItem": 6017,
      "Barrier": 6018,
      "Bars": 6019,
      "Bas": 6020,
      "Base": 6021,
      "Based": 6022,
      "Basic": 6023,
      "Batch": 6024,
      "Bay": 6025,
      "Be": 6026,
      "Bean": 6027,
      "Bearer": 6028,
      "Because": 6029,
      "Bed": 6030,
      "Been": 6031,
      "BeenCalled": 6032,
      "Before": 6033,
      "Begin": 6034,
      "BeginInit": 6035,
      "Beh": 6036,
      "Behavior": 6037,
      "Behaviour": 6038,
      "Being": 6039,
      "Bel": 6040,
      "Below": 6041,
      "Ben": 6042,
      "Ber": 6043,
      "Bes": 6044,
      "Best": 6045,
      "Between": 6046,
      "Bi": 6047,
      "Big": 6048,
      "Bill": 6049,
      "Bin": 6050,
      "Binary": 6051,
      "Bind": 6052,
      "BindView": 6053,
      "Binding": 6054,
      "Birth": 6055,
      "Bit": 6056,
      "Bitmap": 6057,
      "Bits": 6058,
      "Bl": 6059,
      "Black": 6060,
      "Blank": 6061,
      "Blob": 6062,
      "Block": 6063,
      "Blocks": 6064,
      "Blog": 6065,
      "Blue": 6066,
      "Blueprint": 6067,
      "Blur": 6068,
      "Bo": 6069,
      "Board": 6070,
      "Bob": 6071,
      "Body": 6072,
      "Book": 6073,
      "Books": 6074,
      "Bool": 6075,
      "Boolean": 6076,
      "Boot": 6077,
      "BootApplication": 6078,
      "Border": 6079,
      "BorderStyle": 6080,
      "Bot": 6081,
      "Both": 6082,
      "Bottom": 6083,
      "Bound": 6084,
      "Bounding": 6085,
      "Bounds": 6086,
      "Box": 6087,
      "BoxLayout": 6088,
      "Br": 6089,
      "Branch": 6090,
      "Brand": 6091,
      "Break": 6092,
      "Bridge": 6093,
      "Brit": 6094,
      "Bro": 6095,
      "Browser": 6096,
      "Brush": 6097,
      "Btn": 6098,
      "Bucket": 6099,
      "Buf": 6100,
      "Buff": 6101,
      "Buffer": 6102,
      "Buffers": 6103,
      "Build": 6104,
      "Builder": 6105,
      "Building": 6106,
      "Bundle": 6107,
      "Bus": 6108,
      "Business": 6109,
      "But": 6110,
      "Button": 6111,
      "ButtonItem": 6112,
      "Buttons": 6113,
      "Buy": 6114,
      "By": 6115,
      "ById": 6116,
      "ByName": 6117,
      "Byte": 6118,
      "ByteArray": 6119,
      "Bytes": 6120,
      "C": 6121,
      "CA": 6122,
      "CAA": 6123,
      "CADE": 6124,
      "CALE": 6125,
      "CALL": 6126,
      "CAP": 6127,
      "CAR": 6128,
      "CAST": 6129,
      "CAT": 6130,
      "CB": 6131,
      "CC": 6132,
      "CD": 6133,
      "CE": 6134,
      "CENT": 6135,
      "CEPT": 6136,
      "CEPTION": 6137,
      "CES": 6138,
      "CESS": 6139,
      "CF": 6140,
      "CFG": 6141,
      "CG": 6142,
      "CGFloat": 6143,
      "CGRect": 6144,
      "CH": 6145,
      "CHA": 6146,
      "CHANT": 6147,
      "CHAR": 6148,
      "CHECK": 6149,
      "CHED": 6150,
      "CHO": 6151,
      "CI": 6152,
      "CK": 6153,
      "CL": 6154,
      "CLAIM": 6155,
      "CLASS": 6156,
      "CLE": 6157,
      "CLK": 6158,
      "CLU": 6159,
      "CLUD": 6160,
      "CLUDE": 6161,
      "CLUDED": 6162,
      "CLUDING": 6163,
      "CLUS": 6164,
      "CM": 6165,
      "CMD": 6166,
      "CN": 6167,
      "CO": 6168,
      "COD": 6169,
      "CODE": 6170,
      "COL": 6171,
      "COLOR": 6172,
      "COM": 6173,
      "COMP": 6174,
      "CON": 6175,
      "COND": 6176,
      "CONDS": 6177,
      "CONF": 6178,
      "CONFIG": 6179,
      "CONNECT": 6180,
      "CONT": 6181,
      "CORD": 6182,
      "COUNT": 6183,
      "CP": 6184,
      "CPP": 6185,
      "CPU": 6186,
      "CR": 6187,
      "CRE": 6188,
      "CREATE": 6189,
      "CREEN": 6190,
      "CREMENT": 6191,
      "CRET": 6192,
      "CRY": 6193,
      "CS": 6194,
      "CSS": 6195,
      "CT": 6196,
      "CTION": 6197,
      "CTIONS": 6198,
      "CTL": 6199,
      "CTOR": 6200,
      "CTRL": 6201,
      "CTYPE": 6202,
      "CU": 6203,
      "CUR": 6204,
      "CV": 6205,
      "CY": 6206,
      "Ca": 6207,
      "Cache": 6208,
      "Cal": 6209,
      "Calendar": 6210,
      "Call": 6211,
      "Callback": 6212,
      "Called": 6213,
      "Cam": 6214,
      "Camera": 6215,
      "Camp": 6216,
      "Can": 6217,
      "Canada": 6218,
      "Cancel": 6219,
      "Cancelled": 6220,
      "Cannot": 6221,
      "Canvas": 6222,
      "Cap": 6223,
      "Capacity": 6224,
      "Caption": 6225,
      "Capture": 6226,
      "Car": 6227,
      "Carbon": 6228,
      "Card": 6229,
      "Cards": 6230,
      "Care": 6231,
      "Cart": 6232,
      "Case": 6233,
      "Cases": 6234,
      "Cast": 6235,
      "Cat": 6236,
      "Categories": 6237,
      "Category": 6238,
      "Cell": 6239,
      "CellStyle": 6240,
      "CellValue": 6241,
      "Cells": 6242,
      "Cent": 6243,
      "Center": 6244,
      "Cert": 6245,
      "Certificate": 6246,
      "Ch": 6247,
      "Chain": 6248,
      "Change": 6249,
      "ChangeListener": 6250,
      "Changed": 6251,
      "Changes": 6252,
      "Channel": 6253,
      "Channels": 6254,
      "Chapter": 6255,
      "Char": 6256,
      "Character": 6257,
      "Characters": 6258,
      "Chars": 6259,
      "Chart": 6260,
      "Chat": 6261,
      "Che": 6262,
      "Check": 6263,
      "CheckBox": 6264,
      "Checkbox": 6265,
      "Checked": 6266,
      "Checker": 6267,
      "Child": 6268,
      "Children": 6269,
      "China": 6270,
      "Cho": 6271,
      "Choice": 6272,
      "Choose": 6273,
      "Chooser": 6274,
      "Chris": 6275,
      "Christ": 6276,
      "Chunk": 6277,
      "Circle": 6278,
      "City": 6279,
      "Cl": 6280,
      "Class": 6281,
      "ClassName": 6282,
      "Classes": 6283,
      "Classifier": 6284,
      "Clause": 6285,
      "Clean": 6286,
      "Clear": 6287,
      "Click": 6288,
      "ClickListener": 6289,
      "Clicked": 6290,
      "Client": 6291,
      "Cliente": 6292,
      "Clip": 6293,
      "Clock": 6294,
      "Clone": 6295,
      "Close": 6296,
      "Closed": 6297,
      "Closing": 6298,
      "Cloud": 6299,
      "Cluster": 6300,
      "Cmd": 6301,
      "Cnt": 6302,
      "Co": 6303,
      "Code": 6304,
      "CodeGen": 6305,
      "Codec": 6306,
      "Coder": 6307,
      "Codes": 6308,
      "Cog": 6309,
      "Col": 6310,
      "Coll": 6311,
      "Collection": 6312,
      "Collider": 6313,
      "Collision": 6314,
      "Color": 6315,
      "Colors": 6316,
      "Colour": 6317,
      "Cols": 6318,
      "Column": 6319,
      "ColumnName": 6320,
      "Columns": 6321,
      "Com": 6322,
      "Comb": 6323,
      "ComboBox": 6324,
      "Come": 6325,
      "Comm": 6326,
      "Command": 6327,
      "Commands": 6328,
      "Comment": 6329,
      "Comments": 6330,
      "Commerce": 6331,
      "Commit": 6332,
      "Common": 6333,
      "Community": 6334,
      "Comp": 6335,
      "Company": 6336,
      "Compar": 6337,
      "Comparator": 6338,
      "Compare": 6339,
      "Comparer": 6340,
      "Comparison": 6341,
      "Compat": 6342,
      "CompatActivity": 6343,
      "Compatible": 6344,
      "Compiler": 6345,
      "Complete": 6346,
      "Completed": 6347,
      "Completion": 6348,
      "Complex": 6349,
      "Component": 6350,
      "Components": 6351,
      "Computer": 6352,
      "Con": 6353,
      "Condition": 6354,
      "Conditions": 6355,
      "Conf": 6356,
      "Config": 6357,
      "Configuration": 6358,
      "Configure": 6359,
      "Confirm": 6360,
      "Cong": 6361,
      "Conn": 6362,
      "Connect": 6363,
      "Connected": 6364,
      "Connection": 6365,
      "Connector": 6366,
      "Connell": 6367,
      "Cons": 6368,
      "Consider": 6369,
      "Console": 6370,
      "Const": 6371,
      "Constant": 6372,
      "Constants": 6373,
      "Constraint": 6374,
      "Constraints": 6375,
      "Construct": 6376,
      "Constructor": 6377,
      "Consumer": 6378,
      "Cont": 6379,
      "Contact": 6380,
      "Contacts": 6381,
      "Container": 6382,
      "ContainerGap": 6383,
      "Contains": 6384,
      "Content": 6385,
      "ContentPane": 6386,
      "ContentType": 6387,
      "ContentView": 6388,
      "Contents": 6389,
      "Context": 6390,
      "Contin": 6391,
      "Continue": 6392,
      "Contract": 6393,
      "Contracts": 6394,
      "Control": 6395,
      "ControlItem": 6396,
      "Controller": 6397,
      "Controllers": 6398,
      "Controls": 6399,
      "Conv": 6400,
      "Convert": 6401,
      "Converter": 6402,
      "Cookie": 6403,
      "Coord": 6404,
      "Coordinate": 6405,
      "Coords": 6406,
      "Copy": 6407,
      "Copyright": 6408,
      "Cor": 6409,
      "Core": 6410,
      "Coroutine": 6411,
      "Correct": 6412,
      "Cost": 6413,
      "Could": 6414,
      "Couldn": 6415,
      "Count": 6416,
      "Counter": 6417,
      "Country": 6418,
      "Course": 6419,
      "Cover": 6420,
      "Cpp": 6421,
      "CppCodeGen": 6422,
      "CppCodeGenWriteBarrier": 6423,
      "CppMethod": 6424,
      "CppMethodPointer": 6425,
      "Cr": 6426,
      "Craft": 6427,
      "Cre": 6428,
      "Creat": 6429,
      "Create": 6430,
      "Created": 6431,
      "Creating": 6432,
      "Creation": 6433,
      "Creator": 6434,
      "Credentials": 6435,
      "Credit": 6436,
      "Criteria": 6437,
      "Criterion": 6438,
      "Cross": 6439,
      "Cs": 6440,
      "Ctrl": 6441,
      "Ctx": 6442,
      "Culture": 6443,
      "Cur": 6444,
      "Currency": 6445,
      "Current": 6446,
      "Currently": 6447,
      "Cursor": 6448,
      "Curve": 6449,
      "Custom": 6450,
      "Customer": 6451,
      "Cut": 6452,
      "D": 6453,
      "DA": 6454,
      "DAO": 6455,
      "DATA": 6456,
      "DATE": 6457,
      "DATED": 6458,
      "DAY": 6459,
      "DB": 6460,
      "DBG": 6461,
      "DC": 6462,
      "DD": 6463,
      "DE": 6464,
      "DEBUG": 6465,
      "DEC": 6466,
      "DECL": 6467,
      "DECLARE": 6468,
      "DED": 6469,
      "DEF": 6470,
      "DEFAULT": 6471,
      "DEFINE": 6472,
      "DEL": 6473,
      "DELETE": 6474,
      "DER": 6475,
      "DES": 6476,
      "DESC": 6477,
      "DEV": 6478,
      "DEX": 6479,
      "DF": 6480,
      "DI": 6481,
      "DIR": 6482,
      "DIS": 6483,
      "DITION": 6484,
      "DIV": 6485,
      "DK": 6486,
      "DL": 6487,
      "DM": 6488,
      "DMETHOD": 6489,
      "DMI": 6490,
      "DMIN": 6491,
      "DN": 6492,
      "DO": 6493,
      "DOC": 6494,
      "DOCTYPE": 6495,
      "DOM": 6496,
      "DOT": 6497,
      "DOWN": 6498,
      "DP": 6499,
      "DR": 6500,
      "DS": 6501,
      "DT": 6502,
      "DTO": 6503,
      "DU": 6504,
      "DUCT": 6505,
      "DWORD": 6506,
      "DX": 6507,
      "Da": 6508,
      "Damage": 6509,
      "Dan": 6510,
      "Dao": 6511,
      "Dark": 6512,
      "Das": 6513,
      "Dashboard": 6514,
      "Data": 6515,
      "DataAdapter": 6516,
      "DataMember": 6517,
      "DataReader": 6518,
      "DataSet": 6519,
      "DataSource": 6520,
      "DataTable": 6521,
      "DataType": 6522,
      "Database": 6523,
      "Dataset": 6524,
      "Date": 6525,
      "DateFormat": 6526,
      "DateTime": 6527,
      "David": 6528,
      "Day": 6529,
      "Days": 6530,
      "Db": 6531,
      "DbContext": 6532,
      "DbType": 6533,
      "De": 6534,
      "Dead": 6535,
      "Dear": 6536,
      "Death": 6537,
      "Debug": 6538,
      "Dec": 6539,
      "December": 6540,
      "Decimal": 6541,
      "Deck": 6542,
      "Decl": 6543,
      "Declaration": 6544,
      "Decode": 6545,
      "Decoder": 6546,
      "Decor": 6547,
      "Decoration": 6548,
      "Deep": 6549,
      "Def": 6550,
      "Default": 6551,
      "Defaults": 6552,
      "Define": 6553,
      "Defined": 6554,
      "Definition": 6555,
      "Del": 6556,
      "Delay": 6557,
      "Delegate": 6558,
      "Delete": 6559,
      "Deleted": 6560,
      "Delivery": 6561,
      "Delta": 6562,
      "Dem": 6563,
      "Demo": 6564,
      "Den": 6565,
      "Dep": 6566,
      "Department": 6567,
      "Dependency": 6568,
      "Depth": 6569,
      "Der": 6570,
      "Des": 6571,
      "Desc": 6572,
      "Description": 6573,
      "Descriptor": 6574,
      "Design": 6575,
      "Desktop": 6576,
      "Despite": 6577,
      "Dest": 6578,
      "Destination": 6579,
      "Destroy": 6580,
      "Det": 6581,
      "Detail": 6582,
      "Details": 6583,
      "Detector": 6584,
      "Dev": 6585,
      "Develop": 6586,
      "Development": 6587,
      "Device": 6588,
      "Di": 6589,
      "Dialog": 6590,
      "Dict": 6591,
      "Dictionary": 6592,
      "Did": 6593,
      "DidLoad": 6594,
      "Die": 6595,
      "Diff": 6596,
      "Dig": 6597,
      "Digit": 6598,
      "Digital": 6599,
      "Dim": 6600,
      "Dimension": 6601,
      "Dimensions": 6602,
      "Dir": 6603,
      "Direct": 6604,
      "Direction": 6605,
      "Director": 6606,
      "Directory": 6607,
      "Dirty": 6608,
      "Dis": 6609,
      "Disable": 6610,
      "Disabled": 6611,
      "Disc": 6612,
      "Discount": 6613,
      "Dispatch": 6614,
      "DispatchToProps": 6615,
      "Dispatcher": 6616,
      "Display": 6617,
      "DisplayName": 6618,
      "Dist": 6619,
      "Distance": 6620,
      "Div": 6621,
      "Dlg": 6622,
      "Dll": 6623,
      "DllImport": 6624,
      "Do": 6625,
      "Doc": 6626,
      "Doctrine": 6627,
      "Document": 6628,
      "Documents": 6629,
      "Does": 6630,
      "Dom": 6631,
      "Domain": 6632,
      "Don": 6633,
      "Donald": 6634,
      "Done": 6635,
      "Dot": 6636,
      "Double": 6637,
      "Down": 6638,
      "Download": 6639,
      "Dr": 6640,
      "Drag": 6641,
      "Draw": 6642,
      "Drawable": 6643,
      "Drawer": 6644,
      "Drawing": 6645,
      "Drive": 6646,
      "Driver": 6647,
      "Drop": 6648,
      "Dropdown": 6649,
      "Dto": 6650,
      "Due": 6651,
      "Duration": 6652,
      "During": 6653,
      "Dynamic": 6654,
      "E": 6655,
      "EA": 6656,
      "EAR": 6657,
      "EATURE": 6658,
      "EB": 6659,
      "EC": 6660,
      "ECT": 6661,
      "ECTOR": 6662,
      "ED": 6663,
      "EDI": 6664,
      "EDIA": 6665,
      "EDIATE": 6666,
      "EDIT": 6667,
      "EE": 6668,
      "EEE": 6669,
      "EEK": 6670,
      "EF": 6671,
      "EG": 6672,
      "EGIN": 6673,
      "EIF": 6674,
      "EINVAL": 6675,
      "EL": 6676,
      "ELL": 6677,
      "ELLOW": 6678,
      "EM": 6679,
      "EMAIL": 6680,
      "EMENT": 6681,
      "EMP": 6682,
      "EMPL": 6683,
      "EMPLARY": 6684,
      "EMPLATE": 6685,
      "EMPTY": 6686,
      "EN": 6687,
      "ENC": 6688,
      "ENCE": 6689,
      "END": 6690,
      "ENDING": 6691,
      "ENE": 6692,
      "ENER": 6693,
      "ENS": 6694,
      "ENSE": 6695,
      "ENSION": 6696,
      "ENT": 6697,
      "ENTER": 6698,
      "ENTIAL": 6699,
      "ENTITY": 6700,
      "ENU": 6701,
      "ENV": 6702,
      "EO": 6703,
      "EOF": 6704,
      "EP": 6705,
      "ER": 6706,
      "ERA": 6707,
      "ERC": 6708,
      "ERCHANT": 6709,
      "ERCHANTABILITY": 6710,
      "ERENCE": 6711,
      "ERIC": 6712,
      "ERM": 6713,
      "ERN": 6714,
      "ERNEL": 6715,
      "ERO": 6716,
      "ERR": 6717,
      "ERROR": 6718,
      "ERRU": 6719,
      "ERS": 6720,
      "ERSION": 6721,
      "ERT": 6722,
      "ERTICAL": 6723,
      "ERVED": 6724,
      "ERVER": 6725,
      "ERY": 6726,
      "ES": 6727,
      "ESS": 6728,
      "ESSAGE": 6729,
      "EST": 6730,
      "ESTAMP": 6731,
      "ET": 6732,
      "ETA": 6733,
      "ETCH": 6734,
      "ETER": 6735,
      "ETERS": 6736,
      "ETH": 6737,
      "ETHER": 6738,
      "ETHOD": 6739,
      "EU": 6740,
      "EVENT": 6741,
      "EVER": 6742,
      "EW": 6743,
      "EX": 6744,
      "EXP": 6745,
      "EXPECT": 6746,
      "EXPORT": 6747,
      "EXT": 6748,
      "Each": 6749,
      "Ear": 6750,
      "Earlier": 6751,
      "East": 6752,
      "Easy": 6753,
      "Ed": 6754,
      "Edge": 6755,
      "Edit": 6756,
      "EditText": 6757,
      "Editable": 6758,
      "Editing": 6759,
      "Editor": 6760,
      "Editors": 6761,
      "Education": 6762,
      "Effect": 6763,
      "Effects": 6764,
      "El": 6765,
      "Elect": 6766,
      "Elem": 6767,
      "Element": 6768,
      "Elements": 6769,
      "Else": 6770,
      "Em": 6771,
      "Email": 6772,
      "Embed": 6773,
      "Emitter": 6774,
      "Emp": 6775,
      "Employ": 6776,
      "Employee": 6777,
      "Empty": 6778,
      "En": 6779,
      "Enable": 6780,
      "Enabled": 6781,
      "Enc": 6782,
      "Encode": 6783,
      "Encoder": 6784,
      "Encoding": 6785,
      "End": 6786,
      "EndInit": 6787,
      "Endpoint": 6788,
      "Enemy": 6789,
      "Energy": 6790,
      "Eng": 6791,
      "Engine": 6792,
      "English": 6793,
      "Enjoy": 6794,
      "Ent": 6795,
      "Enter": 6796,
      "Entities": 6797,
      "Entity": 6798,
      "Entries": 6799,
      "Entry": 6800,
      "Enum": 6801,
      "Enumer": 6802,
      "Enumerable": 6803,
      "Enumerator": 6804,
      "Env": 6805,
      "Environment": 6806,
      "Ep": 6807,
      "Eq": 6808,
      "Equ": 6809,
      "Equal": 6810,
      "EqualTo": 6811,
      "Equals": 6812,
      "Er": 6813,
      "Err": 6814,
      "Erro": 6815,
      "Error": 6816,
      "ErrorCode": 6817,
      "ErrorMessage": 6818,
      "Errors": 6819,
      "Es": 6820,
      "Esc": 6821,
      "Ess": 6822,
      "Est": 6823,
      "Estado": 6824,
      "Et": 6825,
      "Europe": 6826,
      "Ev": 6827,
      "Even": 6828,
      "Event": 6829,
      "EventArgs": 6830,
      "EventHandler": 6831,
      "EventListener": 6832,
      "Events": 6833,
      "Every": 6834,
      "Everyone": 6835,
      "Everything": 6836,
      "Ex": 6837,
      "Example": 6838,
      "Excel": 6839,
      "Exception": 6840,
      "Exchange": 6841,
      "Exec": 6842,
      "Execute": 6843,
      "Execution": 6844,
      "Executor": 6845,
      "Exist": 6846,
      "Exists": 6847,
      "Exit": 6848,
      "Exp": 6849,
      "Expand": 6850,
      "Expect": 6851,
      "Expected": 6852,
      "Experience": 6853,
      "Export": 6854,
      "Expr": 6855,
      "Express": 6856,
      "Expression": 6857,
      "Ext": 6858,
      "Extension": 6859,
      "Extensions": 6860,
      "External": 6861,
      "Extra": 6862,
      "Extract": 6863,
      "F": 6864,
      "FA": 6865,
      "FACE": 6866,
      "FAIL": 6867,
      "FAILED": 6868,
      "FALSE": 6869,
      "FAULT": 6870,
      "FB": 6871,
      "FC": 6872,
      "FD": 6873,
      "FE": 6874,
      "FER": 6875,
      "FETCH": 6876,
      "FF": 6877,
      "FFECT": 6878,
      "FFF": 6879,
      "FFFF": 6880,
      "FFFFFF": 6881,
      "FG": 6882,
      "FI": 6883,
      "FIELD": 6884,
      "FIG": 6885,
      "FILE": 6886,
      "FILES": 6887,
      "FIN": 6888,
      "FIX": 6889,
      "FK": 6890,
      "FL": 6891,
      "FLAG": 6892,
      "FLAGS": 6893,
      "FM": 6894,
      "FO": 6895,
      "FOR": 6896,
      "FORE": 6897,
      "FORM": 6898,
      "FORMATION": 6899,
      "FP": 6900,
      "FR": 6901,
      "FRING": 6902,
      "FRINGEMENT": 6903,
      "FROM": 6904,
      "FS": 6905,
      "FT": 6906,
      "FTER": 6907,
      "FTWARE": 6908,
      "FUNCTION": 6909,
      "FW": 6910,
      "FX": 6911,
      "FXML": 6912,
      "Fac": 6913,
      "Face": 6914,
      "Facebook": 6915,
      "Fact": 6916,
      "Factor": 6917,
      "Factory": 6918,
      "Fail": 6919,
      "Failed": 6920,
      "Failure": 6921,
      "False": 6922,
      "Family": 6923,
      "Far": 6924,
      "Fast": 6925,
      "Favorite": 6926,
      "Fe": 6927,
      "Feature": 6928,
      "Features": 6929,
      "February": 6930,
      "Fecha": 6931,
      "Feed": 6932,
      "Feedback": 6933,
      "Feel": 6934,
      "Fetch": 6935,
      "Fi": 6936,
      "Field": 6937,
      "Fields": 6938,
      "Fig": 6939,
      "Figure": 6940,
      "File": 6941,
      "FileDialog": 6942,
      "FileName": 6943,
      "FilePath": 6944,
      "FileSync": 6945,
      "Filename": 6946,
      "Files": 6947,
      "Fill": 6948,
      "Filter": 6949,
      "Filters": 6950,
      "Fin": 6951,
      "Final": 6952,
      "Finally": 6953,
      "Find": 6954,
      "Finish": 6955,
      "Finished": 6956,
      "Fire": 6957,
      "First": 6958,
      "FirstName": 6959,
      "FirstOrDefault": 6960,
      "Fit": 6961,
      "Five": 6962,
      "Fix": 6963,
      "Fixed": 6964,
      "Fixture": 6965,
      "Fl": 6966,
      "Flag": 6967,
      "Flags": 6968,
      "Flash": 6969,
      "Flat": 6970,
      "Flex": 6971,
      "Float": 6972,
      "Flow": 6973,
      "Fn": 6974,
      "Focus": 6975,
      "Folder": 6976,
      "Follow": 6977,
      "Following": 6978,
      "Font": 6979,
      "FontSize": 6980,
      "Food": 6981,
      "Footer": 6982,
      "For": 6983,
      "ForKey": 6984,
      "Force": 6985,
      "Fore": 6986,
      "Foreground": 6987,
      "ForeignKey": 6988,
      "Forg": 6989,
      "Form": 6990,
      "FormControl": 6991,
      "Format": 6992,
      "Formatter": 6993,
      "Former": 6994,
      "Forms": 6995,
      "Fort": 6996,
      "Forward": 6997,
      "Found": 6998,
      "Foundation": 6999,
      "Four": 7000,
      "Fr": 7001,
      "Fragment": 7002,
      "FragmentManager": 7003,
      "Frame": 7004,
      "Frames": 7005,
      "Framework": 7006,
      "Frank": 7007,
      "Fre": 7008,
      "Free": 7009,
      "Frequency": 7010,
      "Friday": 7011,
      "From": 7012,
      "Front": 7013,
      "Full": 7014,
      "FullName": 7015,
      "FullYear": 7016,
      "Fun": 7017,
      "Func": 7018,
      "Function": 7019,
      "Functions": 7020,
      "Further": 7021,
      "Future": 7022,
      "G": 7023,
      "GA": 7024,
      "GB": 7025,
      "GBT": 7026,
      "GC": 7027,
      "GE": 7028,
      "GEN": 7029,
      "GER": 7030,
      "GET": 7031,
      "GF": 7032,
      "GG": 7033,
      "GI": 7034,
      "GIN": 7035,
      "GINE": 7036,
      "GL": 7037,
      "GLIGENCE": 7038,
      "GLOBAL": 7039,
      "GLOBALS": 7040,
      "GM": 7041,
      "GMT": 7042,
      "GN": 7043,
      "GNU": 7044,
      "GO": 7045,
      "GP": 7046,
      "GPIO": 7047,
      "GPL": 7048,
      "GR": 7049,
      "GRAM": 7050,
      "GRESS": 7051,
      "GROUND": 7052,
      "GS": 7053,
      "GT": 7054,
      "GUI": 7055,
      "GUILayout": 7056,
      "GV": 7057,
      "Gallery": 7058,
      "Game": 7059,
      "GameObject": 7060,
      "Games": 7061,
      "Gap": 7062,
      "Ge": 7063,
      "Gen": 7064,
      "Gender": 7065,
      "Gener": 7066,
      "General": 7067,
      "Generate": 7068,
      "Generated": 7069,
      "GeneratedValue": 7070,
      "Generation": 7071,
      "Generator": 7072,
      "Generic": 7073,
      "Genre": 7074,
      "Geo": 7075,
      "Geometry": 7076,
      "George": 7077,
      "German": 7078,
      "Gesture": 7079,
      "GestureRecognizer": 7080,
      "Get": 7081,
      "GetComponent": 7082,
      "GetMapping": 7083,
      "GetValue": 7084,
      "Getter": 7085,
      "Getting": 7086,
      "Getty": 7087,
      "Girl": 7088,
      "Give": 7089,
      "Given": 7090,
      "Gl": 7091,
      "Global": 7092,
      "Go": 7093,
      "God": 7094,
      "Gold": 7095,
      "Good": 7096,
      "Google": 7097,
      "Got": 7098,
      "Gr": 7099,
      "Grad": 7100,
      "Grade": 7101,
      "Gradient": 7102,
      "Graph": 7103,
      "Graphics": 7104,
      "Gravity": 7105,
      "Gray": 7106,
      "Great": 7107,
      "Green": 7108,
      "Grid": 7109,
      "GridView": 7110,
      "Ground": 7111,
      "Group": 7112,
      "Groups": 7113,
      "Gu": 7114,
      "Guard": 7115,
      "Guest": 7116,
      "Gui": 7117,
      "Guid": 7118,
      "H": 7119,
      "HA": 7120,
      "HAL": 7121,
      "HB": 7122,
      "HC": 7123,
      "HD": 7124,
      "HE": 7125,
      "HEAD": 7126,
      "HEADER": 7127,
      "HECK": 7128,
      "HEMA": 7129,
      "HEME": 7130,
      "HER": 7131,
      "HERE": 7132,
      "HH": 7133,
      "HI": 7134,
      "HIR": 7135,
      "HITE": 7136,
      "HL": 7137,
      "HO": 7138,
      "HOME": 7139,
      "HOST": 7140,
      "HP": 7141,
      "HR": 7142,
      "HS": 7143,
      "HT": 7144,
      "HTML": 7145,
      "HTTP": 7146,
      "HUD": 7147,
      "HW": 7148,
      "Ha": 7149,
      "Ham": 7150,
      "Hand": 7151,
      "Handle": 7152,
      "Handler": 7153,
      "Handlers": 7154,
      "Handling": 7155,
      "Happy": 7156,
      "Har": 7157,
      "Hard": 7158,
      "Has": 7159,
      "Hash": 7160,
      "HashCode": 7161,
      "HashMap": 7162,
      "Have": 7163,
      "Having": 7164,
      "He": 7165,
      "Head": 7166,
      "Header": 7167,
      "Headers": 7168,
      "Heading": 7169,
      "Health": 7170,
      "Heap": 7171,
      "Height": 7172,
      "Hel": 7173,
      "Hello": 7174,
      "Help": 7175,
      "Helper": 7176,
      "Helpers": 7177,
      "Her": 7178,
      "Here": 7179,
      "Hero": 7180,
      "Hex": 7181,
      "Hey": 7182,
      "Hi": 7183,
      "Hidden": 7184,
      "Hide": 7185,
      "High": 7186,
      "Highlight": 7187,
      "Hint": 7188,
      "His": 7189,
      "History": 7190,
      "Hit": 7191,
      "Holder": 7192,
      "Home": 7193,
      "Hook": 7194,
      "Hope": 7195,
      "Hor": 7196,
      "Horizontal": 7197,
      "Host": 7198,
      "Hot": 7199,
      "Hour": 7200,
      "Hours": 7201,
      "House": 7202,
      "Hover": 7203,
      "How": 7204,
      "However": 7205,
      "Html": 7206,
      "Http": 7207,
      "HttpClient": 7208,
      "HttpGet": 7209,
      "HttpPost": 7210,
      "HttpRequest": 7211,
      "Hub": 7212,
      "Human": 7213,
      "Hy": 7214,
      "Hz": 7215,
      "I": 7216,
      "IA": 7217,
      "IAL": 7218,
      "IALIZ": 7219,
      "IALOG": 7220,
      "IAN": 7221,
      "IAS": 7222,
      "IB": 7223,
      "IBAction": 7224,
      "IBILITY": 7225,
      "IBLE": 7226,
      "IBOutlet": 7227,
      "IBUT": 7228,
      "IBUTE": 7229,
      "IC": 7230,
      "ICA": 7231,
      "ICAL": 7232,
      "ICATION": 7233,
      "ICE": 7234,
      "ICENSE": 7235,
      "ICES": 7236,
      "ICH": 7237,
      "ICK": 7238,
      "ICLE": 7239,
      "ICO": 7240,
      "ICS": 7241,
      "ICT": 7242,
      "ICY": 7243,
      "ICollection": 7244,
      "ICollectionView": 7245,
      "IColor": 7246,
      "ID": 7247,
      "IDD": 7248,
      "IDDEN": 7249,
      "IDE": 7250,
      "IDENT": 7251,
      "IDEO": 7252,
      "IDGET": 7253,
      "IDI": 7254,
      "IDS": 7255,
      "IDTH": 7256,
      "IDs": 7257,
      "IE": 7258,
      "IED": 7259,
      "IEL": 7260,
      "IELD": 7261,
      "IELDS": 7262,
      "IENT": 7263,
      "IER": 7264,
      "IES": 7265,
      "IEW": 7266,
      "IF": 7267,
      "IFA": 7268,
      "IFE": 7269,
      "IFF": 7270,
      "IFI": 7271,
      "IFIC": 7272,
      "IFICATION": 7273,
      "IFIED": 7274,
      "IFIER": 7275,
      "IFO": 7276,
      "IFT": 7277,
      "IFY": 7278,
      "IG": 7279,
      "IGENCE": 7280,
      "IGH": 7281,
      "IGHT": 7282,
      "IGN": 7283,
      "IGNAL": 7284,
      "IGNED": 7285,
      "IGNORE": 7286,
      "II": 7287,
      "III": 7288,
      "IK": 7289,
      "IL": 7290,
      "ILD": 7291,
      "ILE": 7292,
      "ILED": 7293,
      "ILING": 7294,
      "ILITY": 7295,
      "ILL": 7296,
      "ILTER": 7297,
      "IM": 7298,
      "IMAGE": 7299,
      "IMAL": 7300,
      "IMARY": 7301,
      "IME": 7302,
      "IMG": 7303,
      "IMIT": 7304,
      "IMP": 7305,
      "IN": 7306,
      "INA": 7307,
      "INAL": 7308,
      "INARY": 7309,
      "INC": 7310,
      "INCLUDING": 7311,
      "IND": 7312,
      "INDOW": 7313,
      "INE": 7314,
      "INED": 7315,
      "INES": 7316,
      "INESS": 7317,
      "INF": 7318,
      "INFO": 7319,
      "INFRINGEMENT": 7320,
      "ING": 7321,
      "INGLE": 7322,
      "INGS": 7323,
      "INGTON": 7324,
      "INIT": 7325,
      "INK": 7326,
      "INPUT": 7327,
      "INS": 7328,
      "INSERT": 7329,
      "INSTANCE": 7330,
      "INT": 7331,
      "INTER": 7332,
      "INUX": 7333,
      "INVAL": 7334,
      "IO": 7335,
      "IOD": 7336,
      "IOException": 7337,
      "ION": 7338,
      "IOS": 7339,
      "IP": 7340,
      "IPP": 7341,
      "IPS": 7342,
      "IQUE": 7343,
      "IR": 7344,
      "IRE": 7345,
      "IRECT": 7346,
      "IRM": 7347,
      "IRST": 7348,
      "IRT": 7349,
      "IS": 7350,
      "ISA": 7351,
      "ISC": 7352,
      "ISE": 7353,
      "ISED": 7354,
      "ISH": 7355,
      "ISHED": 7356,
      "ISIBLE": 7357,
      "ISING": 7358,
      "ISION": 7359,
      "ISO": 7360,
      "ISS": 7361,
      "IST": 7362,
      "ISTER": 7363,
      "ISTORY": 7364,
      "ISTR": 7365,
      "ISTS": 7366,
      "IT": 7367,
      "ITAL": 7368,
      "ITCH": 7369,
      "ITE": 7370,
      "ITEM": 7371,
      "ITER": 7372,
      "ITH": 7373,
      "ITIES": 7374,
      "ITION": 7375,
      "ITLE": 7376,
      "ITS": 7377,
      "ITY": 7378,
      "ITableView": 7379,
      "IV": 7380,
      "IVATE": 7381,
      "IVE": 7382,
      "IVER": 7383,
      "IVERS": 7384,
      "IVITY": 7385,
      "IX": 7386,
      "IXEL": 7387,
      "IZ": 7388,
      "IZE": 7389,
      "Icon": 7390,
      "IconButton": 7391,
      "Icons": 7392,
      "Id": 7393,
      "Ident": 7394,
      "Identifier": 7395,
      "Identity": 7396,
      "Ids": 7397,
      "Idx": 7398,
      "If": 7399,
      "Ignore": 7400,
      "IgnoreCase": 7401,
      "Il": 7402,
      "Illegal": 7403,
      "Illuminate": 7404,
      "Im": 7405,
      "ImGui": 7406,
      "Image": 7407,
      "ImageView": 7408,
      "Images": 7409,
      "Img": 7410,
      "Imp": 7411,
      "Impl": 7412,
      "Implementation": 7413,
      "Implemented": 7414,
      "Import": 7415,
      "Imports": 7416,
      "In": 7417,
      "InSection": 7418,
      "Inc": 7419,
      "Include": 7420,
      "Incre": 7421,
      "Increment": 7422,
      "Ind": 7423,
      "Index": 7424,
      "IndexOf": 7425,
      "IndexPath": 7426,
      "India": 7427,
      "Indicator": 7428,
      "Indices": 7429,
      "Inf": 7430,
      "Inflater": 7431,
      "Info": 7432,
      "Inform": 7433,
      "Information": 7434,
      "Infos": 7435,
      "Ing": 7436,
      "Init": 7437,
      "Initial": 7438,
      "Initialize": 7439,
      "Initialized": 7440,
      "Inject": 7441,
      "Injection": 7442,
      "Inline": 7443,
      "Inner": 7444,
      "Input": 7445,
      "InputStream": 7446,
      "Inputs": 7447,
      "Ins": 7448,
      "Insert": 7449,
      "Insets": 7450,
      "Inside": 7451,
      "Insn": 7452,
      "Inst": 7453,
      "Install": 7454,
      "Instance": 7455,
      "InstanceOf": 7456,
      "InstanceState": 7457,
      "Instant": 7458,
      "Instead": 7459,
      "Instruction": 7460,
      "Int": 7461,
      "Integer": 7462,
      "Intent": 7463,
      "Inter": 7464,
      "Interaction": 7465,
      "Interceptor": 7466,
      "Interest": 7467,
      "Interface": 7468,
      "Internal": 7469,
      "International": 7470,
      "Internet": 7471,
      "Interrupt": 7472,
      "InterruptedException": 7473,
      "Interval": 7474,
      "Into": 7475,
      "Introduction": 7476,
      "Inv": 7477,
      "Invalid": 7478,
      "Inventory": 7479,
      "Invest": 7480,
      "Invocation": 7481,
      "Invoice": 7482,
      "Invoke": 7483,
      "Ip": 7484,
      "Is": 7485,
      "Israel": 7486,
      "Iss": 7487,
      "It": 7488,
      "Item": 7489,
      "ItemClickListener": 7490,
      "ItemSelected": 7491,
      "Items": 7492,
      "Iter": 7493,
      "Iterator": 7494,
      "Its": 7495,
      "J": 7496,
      "JECT": 7497,
      "JK": 7498,
      "JO": 7499,
      "JP": 7500,
      "JS": 7501,
      "JSON": 7502,
      "JSONObject": 7503,
      "Jack": 7504,
      "James": 7505,
      "Jan": 7506,
      "January": 7507,
      "Java": 7508,
      "JavaScript": 7509,
      "Je": 7510,
      "Jeff": 7511,
      "Jet": 7512,
      "Jim": 7513,
      "Jo": 7514,
      "Job": 7515,
      "John": 7516,
      "Join": 7517,
      "Jon": 7518,
      "Js": 7519,
      "Json": 7520,
      "JsonProperty": 7521,
      "Jul": 7522,
      "July": 7523,
      "Jump": 7524,
      "Jun": 7525,
      "June": 7526,
      "Just": 7527,
      "K": 7528,
      "KA": 7529,
      "KB": 7530,
      "KE": 7531,
      "KEY": 7532,
      "KN": 7533,
      "KNOWN": 7534,
      "KT": 7535,
      "Ke": 7536,
      "Keep": 7537,
      "Kernel": 7538,
      "Key": 7539,
      "KeyDown": 7540,
      "Keyboard": 7541,
      "Keys": 7542,
      "Keyword": 7543,
      "Kind": 7544,
      "King": 7545,
      "Kit": 7546,
      "Kn": 7547,
      "Know": 7548,
      "L": 7549,
      "LA": 7550,
      "LAB": 7551,
      "LAG": 7552,
      "LAN": 7553,
      "LAND": 7554,
      "LANG": 7555,
      "LATED": 7556,
      "LB": 7557,
      "LBL": 7558,
      "LC": 7559,
      "LD": 7560,
      "LE": 7561,
      "LEAR": 7562,
      "LEASE": 7563,
      "LECT": 7564,
      "LECTION": 7565,
      "LED": 7566,
      "LEFT": 7567,
      "LEG": 7568,
      "LEMENT": 7569,
      "LEN": 7570,
      "LER": 7571,
      "LES": 7572,
      "LESS": 7573,
      "LET": 7574,
      "LETE": 7575,
      "LEVEL": 7576,
      "LEX": 7577,
      "LF": 7578,
      "LI": 7579,
      "LIB": 7580,
      "LINE": 7581,
      "LINK": 7582,
      "LIST": 7583,
      "LL": 7584,
      "LM": 7585,
      "LO": 7586,
      "LOAD": 7587,
      "LOAT": 7588,
      "LOB": 7589,
      "LOBAL": 7590,
      "LOC": 7591,
      "LOCAL": 7592,
      "LOCATION": 7593,
      "LOCK": 7594,
      "LOG": 7595,
      "LOPT": 7596,
      "LOS": 7597,
      "LOSE": 7598,
      "LOT": 7599,
      "LOW": 7600,
      "LOY": 7601,
      "LP": 7602,
      "LR": 7603,
      "LS": 7604,
      "LT": 7605,
      "LU": 7606,
      "LY": 7607,
      "La": 7608,
      "Lab": 7609,
      "Label": 7610,
      "Labels": 7611,
      "Lang": 7612,
      "Language": 7613,
      "Large": 7614,
      "Last": 7615,
      "LastError": 7616,
      "LastName": 7617,
      "Lat": 7618,
      "Later": 7619,
      "Latest": 7620,
      "Latitude": 7621,
      "Launch": 7622,
      "Law": 7623,
      "Layer": 7624,
      "Layout": 7625,
      "LayoutInflater": 7626,
      "LayoutPanel": 7627,
      "Lazy": 7628,
      "Le": 7629,
      "Leaf": 7630,
      "Learn": 7631,
      "Leave": 7632,
      "Left": 7633,
      "Leg": 7634,
      "Legend": 7635,
      "Len": 7636,
      "Length": 7637,
      "Les": 7638,
      "Less": 7639,
      "Let": 7640,
      "Letter": 7641,
      "Level": 7642,
      "Lib": 7643,
      "Library": 7644,
      "License": 7645,
      "Life": 7646,
      "Light": 7647,
      "Like": 7648,
      "Limit": 7649,
      "Line": 7650,
      "LineWidth": 7651,
      "Linear": 7652,
      "Lines": 7653,
      "Link": 7654,
      "Linked": 7655,
      "LinkedList": 7656,
      "Links": 7657,
      "List": 7658,
      "ListItem": 7659,
      "ListView": 7660,
      "Listen": 7661,
      "Listener": 7662,
      "Listeners": 7663,
      "Lists": 7664,
      "Literal": 7665,
      "Little": 7666,
      "Live": 7667,
      "Ljava": 7668,
      "Lng": 7669,
      "Lo": 7670,
      "Load": 7671,
      "Loaded": 7672,
      "Loader": 7673,
      "Loading": 7674,
      "Loc": 7675,
      "Local": 7676,
      "Locale": 7677,
      "Localized": 7678,
      "LocalizedString": 7679,
      "Location": 7680,
      "Locator": 7681,
      "Lock": 7682,
      "Log": 7683,
      "Logged": 7684,
      "LoggedIn": 7685,
      "Logger": 7686,
      "Logging": 7687,
      "Logic": 7688,
      "Login": 7689,
      "Logo": 7690,
      "Logout": 7691,
      "London": 7692,
      "Long": 7693,
      "Longitude": 7694,
      "Longrightarrow": 7695,
      "Look": 7696,
      "Looking": 7697,
      "Lookup": 7698,
      "Loop": 7699,
      "Lorem": 7700,
      "Los": 7701,
      "Loss": 7702,
      "Love": 7703,
      "Low": 7704,
      "Lower": 7705,
      "LowerCase": 7706,
      "M": 7707,
      "MA": 7708,
      "MAC": 7709,
      "MAIL": 7710,
      "MAN": 7711,
      "MAND": 7712,
      "MAP": 7713,
      "MARK": 7714,
      "MAX": 7715,
      "MB": 7716,
      "MBOL": 7717,
      "MC": 7718,
      "MD": 7719,
      "ME": 7720,
      "MEM": 7721,
      "MENT": 7722,
      "MENTS": 7723,
      "MESS": 7724,
      "METHOD": 7725,
      "MF": 7726,
      "MG": 7727,
      "MHz": 7728,
      "MI": 7729,
      "MIN": 7730,
      "MISSION": 7731,
      "MIT": 7732,
      "ML": 7733,
      "MLE": 7734,
      "MLElement": 7735,
      "MM": 7736,
      "MO": 7737,
      "MOD": 7738,
      "MODE": 7739,
      "MODULE": 7740,
      "MON": 7741,
      "MOTE": 7742,
      "MOVE": 7743,
      "MP": 7744,
      "MQ": 7745,
      "MR": 7746,
      "MS": 7747,
      "MSC": 7748,
      "MSG": 7749,
      "MT": 7750,
      "MX": 7751,
      "MY": 7752,
      "Ma": 7753,
      "Mac": 7754,
      "Machine": 7755,
      "Mad": 7756,
      "Mag": 7757,
      "Magento": 7758,
      "Mail": 7759,
      "Main": 7760,
      "MainWindow": 7761,
      "Major": 7762,
      "Make": 7763,
      "Maker": 7764,
      "Mal": 7765,
      "Male": 7766,
      "Man": 7767,
      "Manage": 7768,
      "Managed": 7769,
      "Management": 7770,
      "Manager": 7771,
      "Manifest": 7772,
      "Many": 7773,
      "Map": 7774,
      "Mapper": 7775,
      "Mapping": 7776,
      "Maps": 7777,
      "Mar": 7778,
      "March": 7779,
      "Margin": 7780,
      "Mark": 7781,
      "Marker": 7782,
      "Market": 7783,
      "Mask": 7784,
      "Mass": 7785,
      "Master": 7786,
      "Mat": 7787,
      "Match": 7788,
      "Matcher": 7789,
      "Matchers": 7790,
      "Material": 7791,
      "Math": 7792,
      "Matrix": 7793,
      "Matt": 7794,
      "Max": 7795,
      "MaxLength": 7796,
      "Maximum": 7797,
      "May": 7798,
      "Maybe": 7799,
      "Mc": 7800,
      "Me": 7801,
      "Mean": 7802,
      "Meanwhile": 7803,
      "Measure": 7804,
      "Med": 7805,
      "Media": 7806,
      "Mel": 7807,
      "Mem": 7808,
      "Member": 7809,
      "Members": 7810,
      "Memory": 7811,
      "MemoryWarning": 7812,
      "Men": 7813,
      "Menu": 7814,
      "MenuItem": 7815,
      "Mer": 7816,
      "Mesh": 7817,
      "Message": 7818,
      "MessageBox": 7819,
      "Messages": 7820,
      "Met": 7821,
      "Meta": 7822,
      "MetaData": 7823,
      "Metadata": 7824,
      "Method": 7825,
      "Methods": 7826,
      "Metrics": 7827,
      "Mgr": 7828,
      "Mich": 7829,
      "Michael": 7830,
      "Micro": 7831,
      "Microsoft": 7832,
      "Mid": 7833,
      "Middleware": 7834,
      "Migration": 7835,
      "Mike": 7836,
      "Mill": 7837,
      "Millis": 7838,
      "Min": 7839,
      "Minimum": 7840,
      "Minutes": 7841,
      "Miss": 7842,
      "Missing": 7843,
      "Mixin": 7844,
      "Mo": 7845,
      "Mobile": 7846,
      "Mock": 7847,
      "Mod": 7848,
      "Modal": 7849,
      "Mode": 7850,
      "Model": 7851,
      "Models": 7852,
      "Modified": 7853,
      "Modifier": 7854,
      "Module": 7855,
      "Modules": 7856,
      "Mon": 7857,
      "Monday": 7858,
      "Money": 7859,
      "Monitor": 7860,
      "Mont": 7861,
      "Month": 7862,
      "More": 7863,
      "Most": 7864,
      "Motor": 7865,
      "Mount": 7866,
      "Mouse": 7867,
      "Move": 7868,
      "Movement": 7869,
      "Movie": 7870,
      "Moving": 7871,
      "Mr": 7872,
      "Ms": 7873,
      "Msg": 7874,
      "Mu": 7875,
      "Multi": 7876,
      "Multiple": 7877,
      "Music": 7878,
      "Must": 7879,
      "Mutable": 7880,
      "Mutex": 7881,
      "Mvc": 7882,
      "My": 7883,
      "N": 7884,
      "NA": 7885,
      "NAME": 7886,
      "NAS": 7887,
      "NB": 7888,
      "NBC": 7889,
      "NC": 7890,
      "ND": 7891,
      "NDER": 7892,
      "NE": 7893,
      "NECT": 7894,
      "NECTION": 7895,
      "NER": 7896,
      "NESS": 7897,
      "NET": 7898,
      "NEW": 7899,
      "NF": 7900,
      "NG": 7901,
      "NGTH": 7902,
      "NI": 7903,
      "NIEnv": 7904,
      "NING": 7905,
      "NL": 7906,
      "NM": 7907,
      "NN": 7908,
      "NO": 7909,
      "NON": 7910,
      "NOT": 7911,
      "NOTE": 7912,
      "NP": 7913,
      "NR": 7914,
      "NS": 7915,
      "NSArray": 7916,
      "NSDictionary": 7917,
      "NSIndexPath": 7918,
      "NSInteger": 7919,
      "NSMutable": 7920,
      "NSMutableArray": 7921,
      "NSNumber": 7922,
      "NSString": 7923,
      "NSURL": 7924,
      "NT": 7925,
      "NU": 7926,
      "NULL": 7927,
      "NUM": 7928,
      "NV": 7929,
      "NY": 7930,
      "Na": 7931,
      "NaN": 7932,
      "Name": 7933,
      "Named": 7934,
      "Names": 7935,
      "Namespace": 7936,
      "National": 7937,
      "Native": 7938,
      "Nav": 7939,
      "NavLink": 7940,
      "Navbar": 7941,
      "Navigation": 7942,
      "Navigator": 7943,
      "Nd": 7944,
      "Ne": 7945,
      "Need": 7946,
      "Negative": 7947,
      "Net": 7948,
      "Network": 7949,
      "Never": 7950,
      "New": 7951,
      "News": 7952,
      "Next": 7953,
      "Ng": 7954,
      "NgModule": 7955,
      "Nib": 7956,
      "Nick": 7957,
      "Nil": 7958,
      "No": 7959,
      "Node": 7960,
      "Nodes": 7961,
      "Nom": 7962,
      "Nombre": 7963,
      "Nome": 7964,
      "Non": 7965,
      "NonNull": 7966,
      "NonQuery": 7967,
      "None": 7968,
      "Nonnull": 7969,
      "Nor": 7970,
      "Norm": 7971,
      "Normal": 7972,
      "North": 7973,
      "Not": 7974,
      "NotEmpty": 7975,
      "NotFound": 7976,
      "NotFoundException": 7977,
      "NotNull": 7978,
      "Note": 7979,
      "Notes": 7980,
      "Nothing": 7981,
      "Notice": 7982,
      "Notification": 7983,
      "Notifications": 7984,
      "Notify": 7985,
      "Nov": 7986,
      "November": 7987,
      "Now": 7988,
      "Null": 7989,
      "NullException": 7990,
      "NullOr": 7991,
      "Nullable": 7992,
      "Num": 7993,
      "Number": 7994,
      "Numbers": 7995,
      "Numeric": 7996,
      "O": 7997,
      "OB": 7998,
      "OC": 7999,
      "OCK": 8000,
      "OCKET": 8001,
      "OCUMENT": 8002,
      "OD": 8003,
      "ODE": 8004,
      "ODO": 8005,
      "ODULE": 8006,
      "ODY": 8007,
      "OF": 8008,
      "OFF": 8009,
      "OG": 8010,
      "OID": 8011,
      "OK": 8012,
      "OKEN": 8013,
      "OKIE": 8014,
      "OL": 8015,
      "OLD": 8016,
      "OLDER": 8017,
      "OLE": 8018,
      "OLEAN": 8019,
      "OLL": 8020,
      "OLLOW": 8021,
      "OLOR": 8022,
      "OLT": 8023,
      "OLUM": 8024,
      "OLUMN": 8025,
      "OM": 8026,
      "OMB": 8027,
      "OME": 8028,
      "ON": 8029,
      "OND": 8030,
      "ONE": 8031,
      "ONENT": 8032,
      "ONG": 8033,
      "ONLY": 8034,
      "ONS": 8035,
      "ONSE": 8036,
      "ONT": 8037,
      "ONTAL": 8038,
      "OO": 8039,
      "OOK": 8040,
      "OP": 8041,
      "OPEN": 8042,
      "OPS": 8043,
      "OPT": 8044,
      "OPTION": 8045,
      "OPY": 8046,
      "OR": 8047,
      "ORAGE": 8048,
      "ORD": 8049,
      "ORDER": 8050,
      "ORE": 8051,
      "ORITY": 8052,
      "ORIZ": 8053,
      "ORIZONTAL": 8054,
      "ORK": 8055,
      "ORLD": 8056,
      "ORM": 8057,
      "ORMAL": 8058,
      "ORS": 8059,
      "ORT": 8060,
      "ORTH": 8061,
      "ORY": 8062,
      "OS": 8063,
      "OST": 8064,
      "OT": 8065,
      "OTA": 8066,
      "OTAL": 8067,
      "OTE": 8068,
      "OTH": 8069,
      "OTHER": 8070,
      "OTO": 8071,
      "OTT": 8072,
      "OTTOM": 8073,
      "OU": 8074,
      "OUN": 8075,
      "OUND": 8076,
      "OUNT": 8077,
      "OUNTER": 8078,
      "OUR": 8079,
      "OURCE": 8080,
      "OUT": 8081,
      "OUTPUT": 8082,
      "OV": 8083,
      "OVE": 8084,
      "OW": 8085,
      "OWER": 8086,
      "OWN": 8087,
      "Ob": 8088,
      "Obj": 8089,
      "Object": 8090,
      "ObjectName": 8091,
      "Objects": 8092,
      "Observ": 8093,
      "Observable": 8094,
      "Observer": 8095,
      "Occ": 8096,
      "Oct": 8097,
      "October": 8098,
      "Of": 8099,
      "OfType": 8100,
      "OfWeek": 8101,
      "OfWork": 8102,
      "Off": 8103,
      "Offer": 8104,
      "Office": 8105,
      "Official": 8106,
      "Offset": 8107,
      "Oh": 8108,
      "Ok": 8109,
      "Okay": 8110,
      "Old": 8111,
      "On": 8112,
      "Once": 8113,
      "One": 8114,
      "Online": 8115,
      "Only": 8116,
      "Op": 8117,
      "Opacity": 8118,
      "Open": 8119,
      "Opens": 8120,
      "Oper": 8121,
      "Operand": 8122,
      "Operation": 8123,
      "OperationException": 8124,
      "Operations": 8125,
      "Operator": 8126,
      "Ops": 8127,
      "Opt": 8128,
      "Option": 8129,
      "OptionPane": 8130,
      "Optional": 8131,
      "Options": 8132,
      "Or": 8133,
      "OrDefault": 8134,
      "Ord": 8135,
      "Order": 8136,
      "OrderBy": 8137,
      "Orders": 8138,
      "Ordinal": 8139,
      "Organ": 8140,
      "Orientation": 8141,
      "Origin": 8142,
      "Original": 8143,
      "Originally": 8144,
      "Os": 8145,
      "Other": 8146,
      "Our": 8147,
      "Out": 8148,
      "OutOf": 8149,
      "Outlet": 8150,
      "Output": 8151,
      "OutputStream": 8152,
      "Over": 8153,
      "Overall": 8154,
      "Overlay": 8155,
      "Override": 8156,
      "Own": 8157,
      "OwnProperty": 8158,
      "Owner": 8159,
      "P": 8160,
      "PA": 8161,
      "PACE": 8162,
      "PACK": 8163,
      "PAGE": 8164,
      "PAR": 8165,
      "PARAM": 8166,
      "PARATOR": 8167,
      "PART": 8168,
      "PATCH": 8169,
      "PATH": 8170,
      "PC": 8171,
      "PD": 8172,
      "PDF": 8173,
      "PDO": 8174,
      "PE": 8175,
      "PEC": 8176,
      "PECIAL": 8177,
      "PECT": 8178,
      "PEED": 8179,
      "PEG": 8180,
      "PELL": 8181,
      "PEND": 8182,
      "PER": 8183,
      "PERT": 8184,
      "PERTY": 8185,
      "PF": 8186,
      "PG": 8187,
      "PH": 8188,
      "PHA": 8189,
      "PHP": 8190,
      "PI": 8191,
      "PID": 8192,
      "PIO": 8193,
      "PK": 8194,
      "PL": 8195,
      "PLACE": 8196,
      "PLAY": 8197,
      "PLE": 8198,
      "PLEMENT": 8199,
      "PLIC": 8200,
      "PLICATION": 8201,
      "PLIED": 8202,
      "PLY": 8203,
      "PM": 8204,
      "PN": 8205,
      "PO": 8206,
      "POINT": 8207,
      "PORT": 8208,
      "POS": 8209,
      "POSE": 8210,
      "POST": 8211,
      "PP": 8212,
      "PR": 8213,
      "PRE": 8214,
      "PRINT": 8215,
      "PRO": 8216,
      "PS": 8217,
      "PT": 8218,
      "PTH": 8219,
      "PTION": 8220,
      "PTY": 8221,
      "PU": 8222,
      "PUT": 8223,
      "PY": 8224,
      "Pa": 8225,
      "Pack": 8226,
      "Package": 8227,
      "Packet": 8228,
      "Pad": 8229,
      "Padding": 8230,
      "Page": 8231,
      "Pager": 8232,
      "Pages": 8233,
      "Paint": 8234,
      "Pair": 8235,
      "Pal": 8236,
      "Palette": 8237,
      "Pan": 8238,
      "Pane": 8239,
      "Panel": 8240,
      "Paper": 8241,
      "Par": 8242,
      "Para": 8243,
      "Parallel": 8244,
      "ParallelGroup": 8245,
      "Param": 8246,
      "Parameter": 8247,
      "Parameters": 8248,
      "Params": 8249,
      "Parcel": 8250,
      "Parent": 8251,
      "Parse": 8252,
      "Parser": 8253,
      "Part": 8254,
      "Partial": 8255,
      "Particle": 8256,
      "Parts": 8257,
      "Party": 8258,
      "Pass": 8259,
      "Password": 8260,
      "Pat": 8261,
      "Path": 8262,
      "PathVariable": 8263,
      "Paths": 8264,
      "Patient": 8265,
      "Pattern": 8266,
      "Paul": 8267,
      "Pause": 8268,
      "Pay": 8269,
      "Payload": 8270,
      "Payment": 8271,
      "Pe": 8272,
      "Ped": 8273,
      "Peer": 8274,
      "Pen": 8275,
      "Pending": 8276,
      "People": 8277,
      "Per": 8278,
      "PerPage": 8279,
      "Percent": 8280,
      "Percentage": 8281,
      "Performance": 8282,
      "Performed": 8283,
      "Perhaps": 8284,
      "Period": 8285,
      "Permission": 8286,
      "Permissions": 8287,
      "Person": 8288,
      "Personal": 8289,
      "Pet": 8290,
      "Peter": 8291,
      "Ph": 8292,
      "Phase": 8293,
      "Phil": 8294,
      "Phone": 8295,
      "Photo": 8296,
      "Photos": 8297,
      "Physical": 8298,
      "Physics": 8299,
      "Pi": 8300,
      "Pic": 8301,
      "Pick": 8302,
      "Picker": 8303,
      "Picture": 8304,
      "Pid": 8305,
      "Piece": 8306,
      "Pin": 8307,
      "Pipe": 8308,
      "Pipeline": 8309,
      "Pixel": 8310,
      "Pixels": 8311,
      "Pixmap": 8312,
      "Pl": 8313,
      "Place": 8314,
      "Placement": 8315,
      "Plain": 8316,
      "Plan": 8317,
      "Plane": 8318,
      "Platform": 8319,
      "Play": 8320,
      "Player": 8321,
      "Players": 8322,
      "Playing": 8323,
      "Please": 8324,
      "Plot": 8325,
      "Plugin": 8326,
      "Plus": 8327,
      "Po": 8328,
      "Pod": 8329,
      "Point": 8330,
      "Pointer": 8331,
      "PointerException": 8332,
      "Points": 8333,
      "Pol": 8334,
      "Police": 8335,
      "Policy": 8336,
      "Poly": 8337,
      "Polygon": 8338,
      "Pool": 8339,
      "Pop": 8340,
      "Popup": 8341,
      "Por": 8342,
      "Port": 8343,
      "Pos": 8344,
      "Position": 8345,
      "Positive": 8346,
      "Post": 8347,
      "Posted": 8348,
      "Posts": 8349,
      "Power": 8350,
      "Pr": 8351,
      "Pre": 8352,
      "Predicate": 8353,
      "Pref": 8354,
      "Preference": 8355,
      "Preferences": 8356,
      "Preferred": 8357,
      "PreferredGap": 8358,
      "Prefix": 8359,
      "Prefs": 8360,
      "Pres": 8361,
      "Present": 8362,
      "Presenter": 8363,
      "President": 8364,
      "Press": 8365,
      "Pressed": 8366,
      "Prev": 8367,
      "Preview": 8368,
      "Previous": 8369,
      "Price": 8370,
      "Primary": 8371,
      "PrimaryKey": 8372,
      "Prime": 8373,
      "Primitive": 8374,
      "Principal": 8375,
      "Print": 8376,
      "Printing": 8377,
      "Priority": 8378,
      "Priv": 8379,
      "Private": 8380,
      "Pro": 8381,
      "Prob": 8382,
      "Problem": 8383,
      "Proc": 8384,
      "Procedure": 8385,
      "Process": 8386,
      "Processing": 8387,
      "Processor": 8388,
      "Produ": 8389,
      "Product": 8390,
      "Producto": 8391,
      "Products": 8392,
      "Prof": 8393,
      "Profile": 8394,
      "Program": 8395,
      "Progress": 8396,
      "ProgressBar": 8397,
      "Project": 8398,
      "Projects": 8399,
      "Prom": 8400,
      "Promise": 8401,
      "Proof": 8402,
      "Prop": 8403,
      "Propagation": 8404,
      "Properties": 8405,
      "Property": 8406,
      "PropertyChanged": 8407,
      "PropertyName": 8408,
      "Props": 8409,
      "Prot": 8410,
      "Proto": 8411,
      "Protocol": 8412,
      "Prototype": 8413,
      "Provid": 8414,
      "Provider": 8415,
      "Providers": 8416,
      "Proxy": 8417,
      "Ps": 8418,
      "Pt": 8419,
      "Ptr": 8420,
      "Pub": 8421,
      "Public": 8422,
      "Published": 8423,
      "Publisher": 8424,
      "Pull": 8425,
      "Push": 8426,
      "PushButton": 8427,
      "Put": 8428,
      "Py": 8429,
      "Python": 8430,
      "Q": 8431,
      "QL": 8432,
      "QR": 8433,
      "QString": 8434,
      "QU": 8435,
      "QUAL": 8436,
      "QUE": 8437,
      "QUEST": 8438,
      "QUEUE": 8439,
      "QUI": 8440,
      "QUIRE": 8441,
      "QUIRED": 8442,
      "Qt": 8443,
      "Qu": 8444,
      "Qual": 8445,
      "Quality": 8446,
      "Quantity": 8447,
      "Que": 8448,
      "Query": 8449,
      "Quest": 8450,
      "Question": 8451,
      "Questions": 8452,
      "Queue": 8453,
      "Quick": 8454,
      "Quote": 8455,
      "R": 8456,
      "RA": 8457,
      "RAM": 8458,
      "RARY": 8459,
      "RAW": 8460,
      "RAY": 8461,
      "RB": 8462,
      "RC": 8463,
      "RD": 8464,
      "RE": 8465,
      "READ": 8466,
      "REAK": 8467,
      "REAL": 8468,
      "REAM": 8469,
      "REAT": 8470,
      "REATE": 8471,
      "REATED": 8472,
      "RED": 8473,
      "REE": 8474,
      "REEN": 8475,
      "REF": 8476,
      "REFER": 8477,
      "REFERRED": 8478,
      "REFIX": 8479,
      "REG": 8480,
      "RELATED": 8481,
      "REQ": 8482,
      "REQUEST": 8483,
      "RES": 8484,
      "RESH": 8485,
      "RESS": 8486,
      "REST": 8487,
      "RESULT": 8488,
      "RET": 8489,
      "RF": 8490,
      "RG": 8491,
      "RGB": 8492,
      "RI": 8493,
      "RIC": 8494,
      "RICT": 8495,
      "RIGHT": 8496,
      "RIORITY": 8497,
      "RIPT": 8498,
      "RIPTION": 8499,
      "RITE": 8500,
      "RIX": 8501,
      "RL": 8502,
      "RM": 8503,
      "RNA": 8504,
      "RO": 8505,
      "ROID": 8506,
      "ROL": 8507,
      "ROLE": 8508,
      "ROLL": 8509,
      "ROM": 8510,
      "ROOT": 8511,
      "ROP": 8512,
      "ROS": 8513,
      "ROUND": 8514,
      "ROUP": 8515,
      "ROW": 8516,
      "ROWS": 8517,
      "RP": 8518,
      "RPC": 8519,
      "RR": 8520,
      "RS": 8521,
      "RT": 8522,
      "RU": 8523,
      "RV": 8524,
      "RY": 8525,
      "Radio": 8526,
      "RadioButton": 8527,
      "Radius": 8528,
      "Raises": 8529,
      "Random": 8530,
      "Range": 8531,
      "Rank": 8532,
      "Rate": 8533,
      "Rated": 8534,
      "Rating": 8535,
      "Ratio": 8536,
      "Raw": 8537,
      "Ray": 8538,
      "Re": 8539,
      "React": 8540,
      "Read": 8541,
      "ReadOnly": 8542,
      "Reader": 8543,
      "Reading": 8544,
      "Ready": 8545,
      "Real": 8546,
      "Reason": 8547,
      "Rec": 8548,
      "Receive": 8549,
      "ReceiveMemoryWarning": 8550,
      "Received": 8551,
      "Receiver": 8552,
      "Recent": 8553,
      "Recipe": 8554,
      "Recogn": 8555,
      "Recognizer": 8556,
      "Record": 8557,
      "Records": 8558,
      "Rect": 8559,
      "Rectangle": 8560,
      "RecyclerView": 8561,
      "Red": 8562,
      "Redirect": 8563,
      "Reduc": 8564,
      "Reducer": 8565,
      "Ref": 8566,
      "Reference": 8567,
      "References": 8568,
      "Refresh": 8569,
      "Reg": 8570,
      "Regex": 8571,
      "Region": 8572,
      "Register": 8573,
      "Registration": 8574,
      "Registry": 8575,
      "Regular": 8576,
      "Rel": 8577,
      "Related": 8578,
      "Relation": 8579,
      "Relative": 8580,
      "Release": 8581,
      "Rem": 8582,
      "Remember": 8583,
      "Remote": 8584,
      "Remove": 8585,
      "Ren": 8586,
      "Render": 8587,
      "Renderer": 8588,
      "Rendering": 8589,
      "Rep": 8590,
      "Repeat": 8591,
      "Replace": 8592,
      "Reply": 8593,
      "Repo": 8594,
      "Report": 8595,
      "Reports": 8596,
      "Repository": 8597,
      "Republic": 8598,
      "Req": 8599,
      "Request": 8600,
      "RequestBody": 8601,
      "RequestMapping": 8602,
      "RequestParam": 8603,
      "Requested": 8604,
      "Requests": 8605,
      "Require": 8606,
      "Required": 8607,
      "Res": 8608,
      "Research": 8609,
      "Reset": 8610,
      "Resize": 8611,
      "Resolution": 8612,
      "Resolver": 8613,
      "Resource": 8614,
      "ResourceManager": 8615,
      "Resources": 8616,
      "Resp": 8617,
      "Responder": 8618,
      "Response": 8619,
      "ResponseBody": 8620,
      "Rest": 8621,
      "Result": 8622,
      "ResultSet": 8623,
      "Results": 8624,
      "Resume": 8625,
      "Ret": 8626,
      "Return": 8627,
      "Returns": 8628,
      "Reusable": 8629,
      "Reuse": 8630,
      "Reuters": 8631,
      "Rev": 8632,
      "Review": 8633,
      "Revision": 8634,
      "Rich": 8635,
      "Right": 8636,
      "Rightarrow": 8637,
      "Ro": 8638,
      "Rob": 8639,
      "Robert": 8640,
      "Rock": 8641,
      "Role": 8642,
      "Roles": 8643,
      "Roll": 8644,
      "Room": 8645,
      "Root": 8646,
      "Rot": 8647,
      "Rotate": 8648,
      "Rotation": 8649,
      "Round": 8650,
      "Route": 8651,
      "Router": 8652,
      "Routes": 8653,
      "Routing": 8654,
      "RoutingModule": 8655,
      "Row": 8656,
      "RowAt": 8657,
      "RowAtIndexPath": 8658,
      "Rows": 8659,
      "Rule": 8660,
      "Rules": 8661,
      "Run": 8662,
      "Runner": 8663,
      "Running": 8664,
      "Runtime": 8665,
      "S": 8666,
      "SA": 8667,
      "SB": 8668,
      "SC": 8669,
      "SCR": 8670,
      "SCREEN": 8671,
      "SCRI": 8672,
      "SCRIPT": 8673,
      "SCRIPTION": 8674,
      "SD": 8675,
      "SDK": 8676,
      "SDL": 8677,
      "SE": 8678,
      "SEC": 8679,
      "SED": 8680,
      "SEL": 8681,
      "SELECT": 8682,
      "SENT": 8683,
      "SEQ": 8684,
      "SEQU": 8685,
      "SEQUENTIAL": 8686,
      "SER": 8687,
      "SERVER": 8688,
      "SES": 8689,
      "SESSION": 8690,
      "SET": 8691,
      "SError": 8692,
      "SF": 8693,
      "SG": 8694,
      "SH": 8695,
      "SHA": 8696,
      "SI": 8697,
      "SID": 8698,
      "SION": 8699,
      "SIZE": 8700,
      "SK": 8701,
      "SL": 8702,
      "SM": 8703,
      "SN": 8704,
      "SO": 8705,
      "SON": 8706,
      "SOR": 8707,
      "SP": 8708,
      "SPI": 8709,
      "SQL": 8710,
      "SQLException": 8711,
      "SR": 8712,
      "SS": 8713,
      "SSERT": 8714,
      "SSION": 8715,
      "SSL": 8716,
      "ST": 8717,
      "STALL": 8718,
      "STANCE": 8719,
      "START": 8720,
      "STAT": 8721,
      "STATE": 8722,
      "STATUS": 8723,
      "STD": 8724,
      "STEM": 8725,
      "STER": 8726,
      "STIT": 8727,
      "STITUTE": 8728,
      "STM": 8729,
      "STR": 8730,
      "STRING": 8731,
      "STRUCT": 8732,
      "SUB": 8733,
      "SUCCESS": 8734,
      "SUM": 8735,
      "SV": 8736,
      "SW": 8737,
      "SY": 8738,
      "SYS": 8739,
      "Safe": 8740,
      "Sal": 8741,
      "Sales": 8742,
      "Sam": 8743,
      "Same": 8744,
      "Sample": 8745,
      "Samples": 8746,
      "San": 8747,
      "Sat": 8748,
      "Saturday": 8749,
      "Save": 8750,
      "Sc": 8751,
      "Scalar": 8752,
      "Scale": 8753,
      "Scan": 8754,
      "Scanner": 8755,
      "Scene": 8756,
      "Sch": 8757,
      "Schedule": 8758,
      "Scheduler": 8759,
      "Schema": 8760,
      "Scheme": 8761,
      "School": 8762,
      "Science": 8763,
      "Scope": 8764,
      "Scoped": 8765,
      "Score": 8766,
      "Scott": 8767,
      "Screen": 8768,
      "Script": 8769,
      "Scroll": 8770,
      "ScrollPane": 8771,
      "ScrollView": 8772,
      "Se": 8773,
      "Search": 8774,
      "Season": 8775,
      "Sec": 8776,
      "Second": 8777,
      "Seconds": 8778,
      "Secret": 8779,
      "Section": 8780,
      "Sections": 8781,
      "Security": 8782,
      "See": 8783,
      "Seek": 8784,
      "Seg": 8785,
      "Segment": 8786,
      "Segue": 8787,
      "Sel": 8788,
      "Select": 8789,
      "Selected": 8790,
      "Selection": 8791,
      "Selector": 8792,
      "Self": 8793,
      "Sem": 8794,
      "Sen": 8795,
      "Send": 8796,
      "Sender": 8797,
      "Sensor": 8798,
      "Sent": 8799,
      "Separ": 8800,
      "Separator": 8801,
      "Sept": 8802,
      "September": 8803,
      "Seq": 8804,
      "Sequence": 8805,
      "Sequential": 8806,
      "SequentialGroup": 8807,
      "Ser": 8808,
      "Serial": 8809,
      "Serializable": 8810,
      "Serialization": 8811,
      "Serialize": 8812,
      "SerializeField": 8813,
      "SerializedName": 8814,
      "Serializer": 8815,
      "Series": 8816,
      "Serv": 8817,
      "Server": 8818,
      "ServerError": 8819,
      "Service": 8820,
      "ServiceProvider": 8821,
      "Services": 8822,
      "Servlet": 8823,
      "ServletRequest": 8824,
      "ServletResponse": 8825,
      "Session": 8826,
      "Set": 8827,
      "Sets": 8828,
      "Setting": 8829,
      "Settings": 8830,
      "Setup": 8831,
      "Several": 8832,
      "Sex": 8833,
      "Sh": 8834,
      "Shader": 8835,
      "Shadow": 8836,
      "Shape": 8837,
      "Share": 8838,
      "Shared": 8839,
      "SharedPreferences": 8840,
      "Sharp": 8841,
      "She": 8842,
      "Sheet": 8843,
      "Shell": 8844,
      "Shift": 8845,
      "Ship": 8846,
      "Shop": 8847,
      "Short": 8848,
      "Shot": 8849,
      "Should": 8850,
      "Show": 8851,
      "Si": 8852,
      "Sibling": 8853,
      "Side": 8854,
      "Sign": 8855,
      "SignIn": 8856,
      "Signal": 8857,
      "Signature": 8858,
      "Sil": 8859,
      "Sim": 8860,
      "Similar": 8861,
      "Simple": 8862,
      "Since": 8863,
      "Single": 8864,
      "Singleton": 8865,
      "Site": 8866,
      "Size": 8867,
      "SizeMode": 8868,
      "Sizes": 8869,
      "Sk": 8870,
      "Skill": 8871,
      "Skin": 8872,
      "Skip": 8873,
      "Sl": 8874,
      "Slice": 8875,
      "Slide": 8876,
      "Slider": 8877,
      "Slot": 8878,
      "Sm": 8879,
      "Small": 8880,
      "Smart": 8881,
      "Sn": 8882,
      "Snapshot": 8883,
      "So": 8884,
      "Social": 8885,
      "Socket": 8886,
      "Soft": 8887,
      "Software": 8888,
      "Solution": 8889,
      "Some": 8890,
      "Something": 8891,
      "Sometimes": 8892,
      "Song": 8893,
      "Sorry": 8894,
      "Sort": 8895,
      "Sound": 8896,
      "Soup": 8897,
      "Source": 8898,
      "Sources": 8899,
      "South": 8900,
      "Sp": 8901,
      "Space": 8902,
      "Spacing": 8903,
      "Span": 8904,
      "Spe": 8905,
      "Speaking": 8906,
      "Spec": 8907,
      "Special": 8908,
      "Speed": 8909,
      "Spell": 8910,
      "Spinner": 8911,
      "Split": 8912,
      "Spring": 8913,
      "Sprite": 8914,
      "Sql": 8915,
      "Square": 8916,
      "Src": 8917,
      "St": 8918,
      "Stack": 8919,
      "StackTrace": 8920,
      "Staff": 8921,
      "Stage": 8922,
      "Stamp": 8923,
      "Standard": 8924,
      "Star": 8925,
      "Start": 8926,
      "Started": 8927,
      "Starting": 8928,
      "Startup": 8929,
      "Stat": 8930,
      "State": 8931,
      "StateException": 8932,
      "StateToProps": 8933,
      "Statement": 8934,
      "States": 8935,
      "Static": 8936,
      "Station": 8937,
      "Statistics": 8938,
      "Stats": 8939,
      "Status": 8940,
      "StatusCode": 8941,
      "Stay": 8942,
      "Std": 8943,
      "Ste": 8944,
      "Step": 8945,
      "Steps": 8946,
      "Steve": 8947,
      "Still": 8948,
      "Stmt": 8949,
      "Stock": 8950,
      "Stop": 8951,
      "Storage": 8952,
      "Store": 8953,
      "Storm": 8954,
      "Story": 8955,
      "Storyboard": 8956,
      "Str": 8957,
      "Strategy": 8958,
      "Stream": 8959,
      "Street": 8960,
      "String": 8961,
      "StringUtils": 8962,
      "Strings": 8963,
      "Strip": 8964,
      "Stroke": 8965,
      "Struct": 8966,
      "Structure": 8967,
      "Stub": 8968,
      "Student": 8969,
      "Students": 8970,
      "Studio": 8971,
      "Style": 8972,
      "Styled": 8973,
      "Styles": 8974,
      "Su": 8975,
      "Sub": 8976,
      "Subject": 8977,
      "Submit": 8978,
      "Subscribe": 8979,
      "Subscription": 8980,
      "Subview": 8981,
      "Success": 8982,
      "Successful": 8983,
      "Successfully": 8984,
      "Such": 8985,
      "Suite": 8986,
      "Sum": 8987,
      "Summary": 8988,
      "Sun": 8989,
      "Sunday": 8990,
      "Sup": 8991,
      "Super": 8992,
      "Support": 8993,
      "Supported": 8994,
      "Suppress": 8995,
      "SuppressWarnings": 8996,
      "Sur": 8997,
      "Sure": 8998,
      "Surface": 8999,
      "Sw": 9000,
      "Switch": 9001,
      "Sy": 9002,
      "Sym": 9003,
      "Symbol": 9004,
      "Syn": 9005,
      "Sync": 9006,
      "Syntax": 9007,
      "Sys": 9008,
      "System": 9009,
      "T": 9010,
      "TA": 9011,
      "TABLE": 9012,
      "TAG": 9013,
      "TAIL": 9014,
      "TB": 9015,
      "TC": 9016,
      "TD": 9017,
      "TE": 9018,
      "TECT": 9019,
      "TED": 9020,
      "TEGER": 9021,
      "TEM": 9022,
      "TER": 9023,
      "TERN": 9024,
      "TERNAL": 9025,
      "TES": 9026,
      "TEST": 9027,
      "TEX": 9028,
      "TEXT": 9029,
      "TF": 9030,
      "TH": 9031,
      "THE": 9032,
      "THIS": 9033,
      "TI": 9034,
      "TIM": 9035,
      "TIME": 9036,
      "TING": 9037,
      "TINGS": 9038,
      "TK": 9039,
      "TL": 9040,
      "TM": 9041,
      "TN": 9042,
      "TO": 9043,
      "TODO": 9044,
      "TON": 9045,
      "TOP": 9046,
      "TP": 9047,
      "TR": 9048,
      "TRA": 9049,
      "TRACE": 9050,
      "TRGL": 9051,
      "TRL": 9052,
      "TRUE": 9053,
      "TRY": 9054,
      "TS": 9055,
      "TT": 9056,
      "TURN": 9057,
      "TV": 9058,
      "TX": 9059,
      "TY": 9060,
      "TYPE": 9061,
      "Tab": 9062,
      "Table": 9063,
      "TableCell": 9064,
      "TableName": 9065,
      "TableRow": 9066,
      "TableView": 9067,
      "Tables": 9068,
      "Tabs": 9069,
      "Tag": 9070,
      "TagName": 9071,
      "Tags": 9072,
      "Tahoma": 9073,
      "Take": 9074,
      "Talk": 9075,
      "Tap": 9076,
      "Target": 9077,
      "Task": 9078,
      "Tasks": 9079,
      "Tax": 9080,
      "Te": 9081,
      "Team": 9082,
      "Tech": 9083,
      "Techn": 9084,
      "Tel": 9085,
      "Tele": 9086,
      "Tem": 9087,
      "Temp": 9088,
      "Template": 9089,
      "Ten": 9090,
      "Tensor": 9091,
      "Ter": 9092,
      "Term": 9093,
      "Test": 9094,
      "TestCase": 9095,
      "TestMethod": 9096,
      "Testing": 9097,
      "TestingModule": 9098,
      "Tests": 9099,
      "Tex": 9100,
      "Text": 9101,
      "TextBox": 9102,
      "TextBoxColumn": 9103,
      "TextColor": 9104,
      "TextField": 9105,
      "TextView": 9106,
      "Texture": 9107,
      "Th": 9108,
      "Than": 9109,
      "Thank": 9110,
      "Thanks": 9111,
      "That": 9112,
      "The": 9113,
      "Their": 9114,
      "Theme": 9115,
      "Then": 9116,
      "There": 9117,
      "These": 9118,
      "They": 9119,
      "Think": 9120,
      "Third": 9121,
      "This": 9122,
[...]
